{
  "version": "1.0",
  "truncation": null,
  "padding": null,
  "added_tokens": [
    {
      "id": 0,
      "content": "<pad>",
      "single_word": false,
      "lstrip": false,
      "rstrip": false,
      "normalized": false,
      "special": true
    },
    {
      "id": 1,
      "content": "<unk>",
      "single_word": false,
      "lstrip": false,
      "rstrip": false,
      "normalized": false,
      "special": true
    }
  ],
  "normalizer": null,
  "pre_tokenizer": {
    "type": "Whitespace"
  },
  "post_processor": null,
  "decoder": null,
  "model": {
    "type": "BPE",
    "dropout": null,
    "unk_token": null,
    "continuing_subword_prefix": null,
    "end_of_word_suffix": null,
    "fuse_unk": false,
    "byte_fallback": false,
    "ignore_merges": false,
    "vocab": {
      "<pad>": 0,
      "<unk>": 1,
      "!": 2,
      "\"": 3,
      "&": 4,
      "'": 5,
      "(": 6,
      ")": 7,
      ",": 8,
      "-": 9,
      ".": 10,
      "/": 11,
      "0": 12,
      "1": 13,
      "2": 14,
      "3": 15,
      "4": 16,
      "5": 17,
      "6": 18,
      "7": 19,
      "8": 20,
      "9": 21,
      ":": 22,
      ";": 23,
      "?": 24,
      "A": 25,
      "B": 26,
      "C": 27,
      "D": 28,
      "E": 29,
      "F": 30,
      "G": 31,
      "H": 32,
      "I": 33,
      "J": 34,
      "K": 35,
      "L": 36,
      "M": 37,
      "N": 38,
      "O": 39,
      "P": 40,
      "Q": 41,
      "R": 42,
      "S": 43,
      "T": 44,
      "U": 45,
      "V": 46,
      "W": 47,
      "X": 48,
      "Y": 49,
      "Z": 50,
      "[": 51,
      "]": 52,
      "_": 53,
      "`": 54,
      "a": 55,
      "b": 56,
      "c": 57,
      "d": 58,
      "e": 59,
      "f": 60,
      "g": 61,
      "h": 62,
      "i": 63,
      "j": 64,
      "k": 65,
      "l": 66,
      "m": 67,
      "n": 68,
      "o": 69,
      "p": 70,
      "q": 71,
      "r": 72,
      "s": 73,
      "t": 74,
      "u": 75,
      "v": 76,
      "w": 77,
      "x": 78,
      "y": 79,
      "z": 80,
      "{": 81,
      "|": 82,
      "}": 83,
      "he": 84,
      "the": 85,
      "an": 86,
      "in": 87,
      "re": 88,
      "and": 89,
      "ou": 90,
      "th": 91,
      "to": 92,
      "ed": 93,
      "er": 94,
      "on": 95,
      "as": 96,
      "at": 97,
      "is": 98,
      "en": 99,
      "ing": 100,
      "ll": 101,
      "of": 102,
      "or": 103,
      "ar": 104,
      "it": 105,
      "le": 106,
      "me": 107,
      "se": 108,
      "ha": 109,
      "st": 110,
      "hi": 111,
      "be": 112,
      "ow": 113,
      "ld": 114,
      "wi": 115,
      "id": 116,
      "was": 117,
      "ce": 118,
      "ve": 119,
      "ro": 120,
      "gh": 121,
      "sa": 122,
      "his": 123,
      "you": 124,
      "ut": 125,
      "ch": 126,
      "that": 127,
      "no": 128,
      "we": 129,
      "her": 130,
      "for": 131,
      "ver": 132,
      "ly": 133,
      "him": 134,
      "ay": 135,
      "ad": 136,
      "ght": 137,
      "so": 138,
      "The": 139,
      "with": 140,
      "ir": 141,
      "al": 142,
      "ho": 143,
      "es": 144,
      "she": 145,
      "ent": 146,
      "all": 147,
      "li": 148,
      "had": 149,
      "ri": 150,
      "ther": 151,
      "nd": 152,
      "ke": 153,
      "ne": 154,
      "not": 155,
      "oo": 156,
      "ck": 157,
      "one": 158,
      "ould": 159,
      "red": 160,
      "ti": 161,
      "said": 162,
      "co": 163,
      "fe": 164,
      "ter": 165,
      "out": 166,
      "my": 167,
      "they": 168,
      "up": 169,
      "whe": 170,
      "man": 171,
      "ur": 172,
      "but": 173,
      "la": 174,
      "de": 175,
      "ge": 176,
      "ca": 177,
      "mo": 178,
      "ra": 179,
      "un": 180,
      "whi": 181,
      "who": 182,
      "go": 183,
      "pe": 184,
      "ss": 185,
      "ain": 186,
      "do": 187,
      "rom": 188,
      "have": 189,
      "them": 190,
      "am": 191,
      "this": 192,
      "if": 193,
      "ard": 194,
      "us": 195,
      "fo": 196,
      "hat": 197,
      "lo": 198,
      "ab": 199,
      "ast": 200,
      "from": 201,
      "by": 202,
      "will": 203,
      "were": 204,
      "which": 205,
      "own": 206,
      "rou": 207,
      "sel": 208,
      ".\"": 209,
      "king": 210,
      "when": 211,
      "our": 212,
      "itt": 213,
      "rin": 214,
      "ight": 215,
      "ul": 216,
      "very": 217,
      "po": 218,
      "ag": 219,
      "are": 220,
      "ind": 221,
      "thou": 222,
      "ant": 223,
      "sh": 224,
      "qu": 225,
      "there": 226,
      "ry": 227,
      "now": 228,
      "wo": 229,
      "ong": 230,
      "way": 231,
      ",\"": 232,
      "fa": 233,
      "ion": 234,
      "too": 235,
      "il": 236,
      "bo": 237,
      "thing": 238,
      "ked": 239,
      "su": 240,
      "pp": 241,
      "fore": 242,
      "rince": 243,
      "wor": 244,
      "te": 245,
      "gre": 246,
      "self": 247,
      "came": 248,
      "ittle": 249,
      "He": 250,
      "et": 251,
      "ust": 252,
      "into": 253,
      "con": 254,
      "ers": 255,
      "ill": 256,
      "ood": 257,
      "day": 258,
      "little": 259,
      "would": 260,
      ".'": 261,
      "see": 262,
      "their": 263,
      "ta": 264,
      "what": 265,
      "And": 266,
      "mp": 267,
      "hed": 268,
      "--": 269,
      "could": 270,
      "end": 271,
      "old": 272,
      ",'": 273,
      "other": 274,
      "ep": 275,
      "some": 276,
      "went": 277,
      "ven": 278,
      "af": 279,
      "ac": 280,
      "time": 281,
      "your": 282,
      "art": 283,
      "then": 284,
      "But": 285,
      "ma": 286,
      "urn": 287,
      "sp": 288,
      "ound": 289,
      "sto": 290,
      "ree": 291,
      "op": 292,
      "loo": 293,
      "ans": 294,
      "ic": 295,
      "ru": 296,
      "ved": 297,
      "ex": 298,
      "ba": 299,
      "nt": 300,
      "gi": 301,
      "ran": 302,
      "come": 303,
      "where": 304,
      "down": 305,
      "say": 306,
      "ide": 307,
      "ate": 308,
      "before": 309,
      "ite": 310,
      "over": 311,
      "Then": 312,
      "did": 313,
      "sha": 314,
      "ried": 315,
      "pre": 316,
      "upon": 317,
      "ear": 318,
      "mb": 319,
      "hand": 320,
      "long": 321,
      "ave": 322,
      "turn": 323,
      "any": 324,
      "like": 325,
      "been": 326,
      "again": 327,
      "ment": 328,
      "ade": 329,
      "ct": 330,
      "med": 331,
      "can": 332,
      "great": 333,
      "than": 334,
      "prince": 335,
      "more": 336,
      "ie": 337,
      "und": 338,
      "ure": 339,
      "ous": 340,
      "hen": 341,
      "per": 342,
      "back": 343,
      "ine": 344,
      "how": 345,
      "chi": 346,
      "hou": 347,
      "King": 348,
      "ig": 349,
      "ass": 350,
      "night": 351,
      "after": 352,
      "head": 353,
      "ount": 354,
      "off": 355,
      "row": 356,
      "ist": 357,
      "So": 358,
      "pla": 359,
      "It": 360,
      "ish": 361,
      "ever": 362,
      "ap": 363,
      "da": 364,
      "about": 365,
      "only": 366,
      "ened": 367,
      "must": 368,
      "took": 369,
      "ng": 370,
      "himself": 371,
      "saw": 372,
      "ught": 373,
      "house": 374,
      "bro": 375,
      "orn": 376,
      "away": 377,
      "mar": 378,
      "every": 379,
      "know": 380,
      "two": 381,
      "led": 382,
      "est": 383,
      "beg": 384,
      "read": 385,
      "well": 386,
      "round": 387,
      "should": 388,
      "ess": 389,
      "son": 390,
      "good": 391,
      "?\"": 392,
      "ire": 393,
      "ble": 394,
      "ey": 395,
      "When": 396,
      "made": 397,
      "ull": 398,
      "!\"": 399,
      "shall": 400,
      "lay": 401,
      "able": 402,
      "never": 403,
      "mu": 404,
      "father": 405,
      "wat": 406,
      "its": 407,
      "Prince": 408,
      "low": 409,
      "thought": 410,
      "pt": 411,
      "br": 412,
      "ful": 413,
      "el": 414,
      "here": 415,
      "sent": 416,
      "ice": 417,
      "ds": 418,
      "ach": 419,
      "ves": 420,
      "ft": 421,
      "pro": 422,
      "till": 423,
      "lad": 424,
      "ise": 425,
      "new": 426,
      "aut": 427,
      "mother": 428,
      "?'": 429,
      "hor": 430,
      "ang": 431,
      "men": 432,
      "thee": 433,
      "car": 434,
      "asked": 435,
      "rough": 436,
      "happ": 437,
      "wered": 438,
      "She": 439,
      "get": 440,
      "im": 441,
      "answered": 442,
      "mer": 443,
      "put": 444,
      "light": 445,
      "heard": 446,
      "ving": 447,
      "found": 448,
      "even": 449,
      "side": 450,
      "has": 451,
      "last": 452,
      "use": 453,
      "let": 454,
      "young": 455,
      "right": 456,
      "com": 457,
      "ak": 458,
      "much": 459,
      "beaut": 460,
      "take": 461,
      "ick": 462,
      "We": 463,
      "clo": 464,
      "fir": 465,
      "ward": 466,
      "rep": 467,
      "ace": 468,
      "dre": 469,
      "home": 470,
      "ity": 471,
      "woman": 472,
      "gold": 473,
      "der": 474,
      "through": 475,
      "thy": 476,
      "set": 477,
      "ance": 478,
      "soon": 479,
      "ath": 480,
      "told": 481,
      "lt": 482,
      "child": 483,
      "ty": 484,
      "ation": 485,
      "llow": 486,
      "che": 487,
      "!'": 488,
      "gr": 489,
      "mon": 490,
      "got": 491,
      "ue": 492,
      "wife": 493,
      "call": 494,
      "In": 495,
      "tre": 496,
      "wa": 497,
      "turned": 498,
      "dis": 499,
      "while": 500,
      "ser": 501,
      "tell": 502,
      "under": 503,
      "om": 504,
      "air": 505,
      "place": 506,
      "sho": 507,
      "horse": 508,
      "ated": 509,
      "spe": 510,
      "arm": 511,
      "door": 512,
      "gave": 513,
      "give": 514,
      "cre": 515,
      "They": 516,
      "most": 517,
      "daught": 518,
      "jo": 519,
      "des": 520,
      "these": 521,
      "age": 522,
      "first": 523,
      "brother": 524,
      "You": 525,
      "once": 526,
      "may": 527,
      "na": 528,
      "bet": 529,
      "water": 530,
      "might": 531,
      "such": 532,
      "looked": 533,
      "cried": 534,
      "three": 535,
      "iful": 536,
      "ort": 537,
      "ple": 538,
      "ced": 539,
      "What": 540,
      "tain": 541,
      "ence": 542,
      "year": 543,
      "thin": 544,
      "eyes": 545,
      "heart": 546,
      "lied": 547,
      "sat": 548,
      "pal": 549,
      "tood": 550,
      "nothing": 551,
      "dd": 552,
      "beautiful": 553,
      "pr": 554,
      "daughter": 555,
      "gir": 556,
      "land": 557,
      "still": 558,
      "princess": 559,
      "bl": 560,
      "ally": 561,
      "make": 562,
      "ished": 563,
      "ople": 564,
      "No": 565,
      "left": 566,
      "full": 567,
      "just": 568,
      "There": 569,
      "wh": 570,
      "boy": 571,
      "tion": 572,
      "comp": 573,
      "ung": 574,
      "quite": 575,
      "people": 576,
      "count": 577,
      "bu": 578,
      "ted": 579,
      "replied": 580,
      "began": 581,
      "pass": 582,
      "ks": 583,
      "dy": 584,
      "bed": 585,
      "di": 586,
      "stre": 587,
      "find": 588,
      "sle": 589,
      "girl": 590,
      "les": 591,
      "far": 592,
      "many": 593,
      "palace": 594,
      "Now": 595,
      "ched": 596,
      "ci": 597,
      "At": 598,
      "ord": 599,
      "ive": 600,
      "ken": 601,
      "ily": 602,
      "pped": 603,
      "stood": 604,
      "lar": 605,
      "wind": 606,
      "This": 607,
      "won": 608,
      "room": 609,
      "morn": 610,
      "ared": 611,
      "bir": 612,
      "another": 613,
      "wn": 614,
      "tree": 615,
      "morning": 616,
      "called": 617,
      "sm": 618,
      "eat": 619,
      "says": 620,
      "ren": 621,
      "world": 622,
      "aster": 623,
      "ps": 624,
      "rought": 625,
      "without": 626,
      "ting": 627,
      "ah": 628,
      "life": 629,
      "want": 630,
      "each": 631,
      "love": 632,
      "ged": 633,
      "brought": 634,
      "knew": 635,
      "ten": 636,
      "ars": 637,
      "pleas": 638,
      "sun": 639,
      "ste": 640,
      "vo": 641,
      "stand": 642,
      "ose": 643,
      "ness": 644,
      "If": 645,
      "tra": 646,
      "appe": 647,
      "wood": 648,
      "sil": 649,
      "All": 650,
      "rest": 651,
      "pl": 652,
      "fell": 653,
      "od": 654,
      "cle": 655,
      "ze": 656,
      "words": 657,
      "less": 658,
      "cla": 659,
      "seen": 660,
      "same": 661,
      "whole": 662,
      "poor": 663,
      "ered": 664,
      "ies": 665,
      "ts": 666,
      "ings": 667,
      "ef": 668,
      "ough": 669,
      "done": 670,
      "app": 671,
      "follow": 672,
      "Oh": 673,
      "ses": 674,
      "sed": 675,
      "gl": 676,
      "shi": 677,
      "wards": 678,
      "though": 679,
      "kind": 680,
      "uck": 681,
      "part": 682,
      "wal": 683,
      "nor": 684,
      "near": 685,
      "days": 686,
      "As": 687,
      "cour": 688,
      "fri": 689,
      "ister": 690,
      "inn": 691,
      "also": 692,
      "gu": 693,
      "cast": 694,
      "ga": 695,
      "going": 696,
      "sing": 697,
      "gether": 698,
      "ised": 699,
      "together": 700,
      "word": 701,
      "cl": 702,
      "ways": 703,
      "pie": 704,
      "ult": 705,
      "spo": 706,
      "large": 707,
      "xt": 708,
      "ith": 709,
      "face": 710,
      "mount": 711,
      "min": 712,
      "kill": 713,
      "leave": 714,
      "dra": 715,
      "friend": 716,
      "fle": 717,
      "piece": 718,
      "cause": 719,
      "moment": 720,
      "used": 721,
      "cut": 722,
      "think": 723,
      "look": 724,
      "ring": 725,
      "ling": 726,
      "ket": 727,
      "ins": 728,
      "Princess": 729,
      "being": 730,
      "unti": 731,
      "hear": 732,
      "On": 733,
      "flow": 734,
      "lack": 735,
      "hu": 736,
      "next": 737,
      "cont": 738,
      "run": 739,
      "ark": 740,
      "ground": 741,
      "ase": 742,
      "ants": 743,
      "ached": 744,
      "cked": 745,
      "lf": 746,
      "body": 747,
      "ob": 748,
      "hus": 749,
      "vi": 750,
      "maid": 751,
      "sla": 752,
      "cond": 753,
      "until": 754,
      "years": 755,
      "bre": 756,
      "hel": 757,
      "present": 758,
      "cer": 759,
      "lady": 760,
      "hard": 761,
      "open": 762,
      "cat": 763,
      "dden": 764,
      "care": 765,
      "sea": 766,
      "hold": 767,
      "hy": 768,
      "si": 769,
      "play": 770,
      "bring": 771,
      "ug": 772,
      "lie": 773,
      "ign": 774,
      "How": 775,
      "herself": 776,
      "rem": 777,
      "master": 778,
      "joy": 779,
      "gra": 780,
      "gard": 781,
      "name": 782,
      "cha": 783,
      "wait": 784,
      "tor": 785,
      "fall": 786,
      "mis": 787,
      "ssed": 788,
      "saying": 789,
      "white": 790,
      "mber": 791,
      "een": 792,
      "tru": 793,
      "story": 794,
      "wall": 795,
      "hands": 796,
      "rose": 797,
      "fair": 798,
      "band": 799,
      "pa": 800,
      "always": 801,
      "children": 802,
      "work": 803,
      "enough": 804,
      "ready": 805,
      "fire": 806,
      "sleep": 807,
      "ls": 808,
      "atter": 809,
      "serv": 810,
      "oc": 811,
      "je": 812,
      "dead": 813,
      "myself": 814,
      "ff": 815,
      "fast": 816,
      "rab": 817,
      "fl": 818,
      "sister": 819,
      "returned": 820,
      "passed": 821,
      "cted": 822,
      "ction": 823,
      "black": 824,
      "something": 825,
      "happened": 826,
      "seemed": 827,
      "hind": 828,
      "help": 829,
      "foo": 830,
      "sk": 831,
      "sur": 832,
      "sc": 833,
      "whom": 834,
      "keep": 835,
      "tend": 836,
      "remain": 837,
      "stran": 838,
      "ms": 839,
      "thir": 840,
      "lived": 841,
      "became": 842,
      "eng": 843,
      "That": 844,
      "cou": 845,
      "among": 846,
      "sight": 847,
      "feet": 848,
      "better": 849,
      "held": 850,
      "oney": 851,
      "sure": 852,
      "thre": 853,
      "bit": 854,
      "ask": 855,
      "dist": 856,
      "tal": 857,
      "fort": 858,
      "gs": 859,
      "garden": 860,
      "ions": 861,
      "evening": 862,
      "mou": 863,
      "hung": 864,
      "hast": 865,
      "selves": 866,
      "both": 867,
      "Well": 868,
      "vered": 869,
      "don": 870,
      "pers": 871,
      "death": 872,
      "My": 873,
      "yet": 874,
      "Be": 875,
      "ious": 876,
      "felt": 877,
      "high": 878,
      "times": 879,
      "tle": 880,
      "reached": 881,
      "par": 882,
      "those": 883,
      "mid": 884,
      "orrow": 885,
      "youth": 886,
      "things": 887,
      "One": 888,
      "ning": 889,
      "grew": 890,
      "ither": 891,
      "kn": 892,
      "voice": 893,
      "owed": 894,
      "God": 895,
      "country": 896,
      "inde": 897,
      "forth": 898,
      "husband": 899,
      "castle": 900,
      "swe": 901,
      "gone": 902,
      "wer": 903,
      "return": 904,
      "forest": 905,
      "str": 906,
      "arri": 907,
      "vent": 908,
      "having": 909,
      "cu": 910,
      "mag": 911,
      "sand": 912,
      "behind": 913,
      "ather": 914,
      "ined": 915,
      "wonder": 916,
      "Mo": 917,
      "gen": 918,
      "window": 919,
      "ian": 920,
      "ook": 921,
      "ons": 922,
      "sup": 923,
      "ches": 924,
      "die": 925,
      "ju": 926,
      "four": 927,
      "fish": 928,
      "looking": 929,
      "vis": 930,
      "wish": 931,
      "mind": 932,
      "money": 933,
      "wit": 934,
      "stru": 935,
      "qui": 936,
      "ary": 937,
      "ature": 938,
      "van": 939,
      "fine": 940,
      "sound": 941,
      "city": 942,
      "ross": 943,
      "appeared": 944,
      "fter": 945,
      "grand": 946,
      "rink": 947,
      "however": 948,
      "pow": 949,
      "towards": 950,
      "anything": 951,
      "Yes": 952,
      "few": 953,
      "covered": 954,
      "bird": 955,
      "dro": 956,
      "taken": 957,
      "earth": 958,
      "cri": 959,
      "best": 960,
      "mountain": 961,
      "certain": 962,
      "TH": 963,
      "pos": 964,
      "hes": 965,
      "big": 966,
      "flew": 967,
      "town": 968,
      "ney": 969,
      "After": 970,
      "Do": 971,
      "pri": 972,
      "opened": 973,
      "wr": 974,
      "rying": 975,
      "ger": 976,
      "given": 977,
      "ied": 978,
      "ier": 979,
      "ship": 980,
      "ber": 981,
      "undred": 982,
      "ene": 983,
      "fill": 984,
      "prom": 985,
      "fully": 986,
      "Allah": 987,
      "imp": 988,
      "tr": 989,
      "chant": 990,
      "because": 991,
      "ding": 992,
      "hundred": 993,
      "key": 994,
      "small": 995,
      "hath": 996,
      "everything": 997,
      "flo": 998,
      "form": 999,
      ".--": 1000,
      "cur": 1001,
      "dark": 1002,
      "ped": 1003,
      "themselves": 1004,
      "hea": 1005,
      "exce": 1006,
      "iled": 1007,
      "maiden": 1008,
      "ton": 1009,
      "For": 1010,
      "step": 1011,
      "cannot": 1012,
      "dered": 1013,
      "fre": 1014,
      "trees": 1015,
      "rown": 1016,
      "int": 1017,
      "half": 1018,
      "bar": 1019,
      "emp": 1020,
      "against": 1021,
      "dif": 1022,
      "pur": 1023,
      "cei": 1024,
      "iz": 1025,
      "lost": 1026,
      "queen": 1027,
      "along": 1028,
      "threw": 1029,
      "quick": 1030,
      "igh": 1031,
      "hour": 1032,
      "entered": 1033,
      "ueen": 1034,
      "Queen": 1035,
      "river": 1036,
      "itting": 1037,
      "ultan": 1038,
      "stra": 1039,
      "His": 1040,
      "coming": 1041,
      "pieces": 1042,
      "kis": 1043,
      "carried": 1044,
      "iness": 1045,
      "Ma": 1046,
      "happy": 1047,
      "oud": 1048,
      "hair": 1049,
      "Arab": 1050,
      "Ta": 1051,
      "abo": 1052,
      "By": 1053,
      "ought": 1054,
      "indeed": 1055,
      "rid": 1056,
      "stay": 1057,
      "brothers": 1058,
      "alone": 1059,
      "green": 1060,
      "lying": 1061,
      "silver": 1062,
      "whose": 1063,
      "foot": 1064,
      "wel": 1065,
      "golden": 1066,
      "ween": 1067,
      "stone": 1068,
      "second": 1069,
      ":--": 1070,
      "sin": 1071,
      "dear": 1072,
      "clothe": 1073,
      "matter": 1074,
      "road": 1075,
      "fear": 1076,
      "lled": 1077,
      "mand": 1078,
      "ddenly": 1079,
      "bear": 1080,
      "trou": 1081,
      "become": 1082,
      "third": 1083,
      "ron": 1084,
      "arn": 1085,
      "between": 1086,
      "ately": 1087,
      "eld": 1088,
      "jour": 1089,
      "live": 1090,
      "rel": 1091,
      "dog": 1092,
      "list": 1093,
      "ack": 1094,
      "journey": 1095,
      "giant": 1096,
      "power": 1097,
      "mouth": 1098,
      "ress": 1099,
      "ond": 1100,
      "often": 1101,
      "laid": 1102,
      "ye": 1103,
      "trave": 1104,
      "cks": 1105,
      "really": 1106,
      "food": 1107,
      "therefore": 1108,
      "standing": 1109,
      "ban": 1110,
      "sid": 1111,
      "sum": 1112,
      "imed": 1113,
      "feel": 1114,
      "contin": 1115,
      "gri": 1116,
      "top": 1117,
      "bra": 1118,
      "pret": 1119,
      "others": 1120,
      "met": 1121,
      "ition": 1122,
      "excla": 1123,
      "Co": 1124,
      "ris": 1125,
      "cold": 1126,
      "eye": 1127,
      "fin": 1128,
      "belie": 1129,
      "pray": 1130,
      "inter": 1131,
      "une": 1132,
      "ceived": 1133,
      "burn": 1134,
      "walked": 1135,
      "clothes": 1136,
      "sitting": 1137,
      "strange": 1138,
      "hun": 1139,
      "drink": 1140,
      "need": 1141,
      "ries": 1142,
      "arms": 1143,
      "speak": 1144,
      "To": 1145,
      "close": 1146,
      "TE": 1147,
      "reme": 1148,
      "placed": 1149,
      "show": 1150,
      "table": 1151,
      "quest": 1152,
      "Why": 1153,
      "rich": 1154,
      "marry": 1155,
      "strong": 1156,
      "wed": 1157,
      "thousand": 1158,
      "drew": 1159,
      "Mar": 1160,
      "leng": 1161,
      "ently": 1162,
      "spl": 1163,
      "sw": 1164,
      "dom": 1165,
      "als": 1166,
      "deep": 1167,
      "filled": 1168,
      "length": 1169,
      "shed": 1170,
      "fright": 1171,
      "hur": 1172,
      "Ah": 1173,
      "fam": 1174,
      "spoke": 1175,
      "flowers": 1176,
      "dle": 1177,
      "delight": 1178,
      "Here": 1179,
      "THE": 1180,
      "bright": 1181,
      "ery": 1182,
      "kept": 1183,
      "course": 1184,
      "continu": 1185,
      "ible": 1186,
      "chief": 1187,
      "ok": 1188,
      "seven": 1189,
      "bad": 1190,
      "Al": 1191,
      "riage": 1192,
      "bas": 1193,
      "fla": 1194,
      "tri": 1195,
      "neck": 1196,
      "stead": 1197,
      "bey": 1198,
      "enter": 1199,
      "corn": 1200,
      "tears": 1201,
      "acc": 1202,
      "followed": 1203,
      "sword": 1204,
      "magic": 1205,
      "haps": 1206,
      "exclaimed": 1207,
      "wanted": 1208,
      "why": 1209,
      "grow": 1210,
      "sold": 1211,
      "ield": 1212,
      "person": 1213,
      "gar": 1214,
      "hall": 1215,
      "creature": 1216,
      "NO": 1217,
      "pi": 1218,
      "wild": 1219,
      "tired": 1220,
      "dream": 1221,
      "az": 1222,
      "longer": 1223,
      "beat": 1224,
      "thus": 1225,
      "order": 1226,
      "Sultan": 1227,
      "snow": 1228,
      "stor": 1229,
      "ee": 1230,
      "ev": 1231,
      "caught": 1232,
      "mean": 1233,
      "ased": 1234,
      "killed": 1235,
      "remained": 1236,
      "sign": 1237,
      "stu": 1238,
      "else": 1239,
      "dress": 1240,
      "char": 1241,
      "pu": 1242,
      "answer": 1243,
      "mi": 1244,
      "cup": 1245,
      "ching": 1246,
      "yourself": 1247,
      "known": 1248,
      "kes": 1249,
      "almost": 1250,
      "slave": 1251,
      "nu": 1252,
      "start": 1253,
      "cess": 1254,
      "ures": 1255,
      "sweet": 1256,
      "bus": 1257,
      "glad": 1258,
      "bride": 1259,
      "pit": 1260,
      "tom": 1261,
      "taking": 1262,
      "eas": 1263,
      "wise": 1264,
      "ited": 1265,
      "Who": 1266,
      "ner": 1267,
      "leep": 1268,
      "pain": 1269,
      "arrived": 1270,
      "wine": 1271,
      "lee": 1272,
      "stant": 1273,
      "suddenly": 1274,
      "gest": 1275,
      "stopped": 1276,
      "ai": 1277,
      "rode": 1278,
      "Let": 1279,
      "sof": 1280,
      "true": 1281,
      "hill": 1282,
      "cious": 1283,
      "birds": 1284,
      "tou": 1285,
      "lau": 1286,
      "NOTE": 1287,
      "war": 1288,
      "poss": 1289,
      "Ch": 1290,
      "bot": 1291,
      "street": 1292,
      "tu": 1293,
      "iced": 1294,
      "witch": 1295,
      "since": 1296,
      "tly": 1297,
      "married": 1298,
      "hon": 1299,
      "above": 1300,
      "bread": 1301,
      "asleep": 1302,
      "bow": 1303,
      "ors": 1304,
      "arrow": 1305,
      "carry": 1306,
      "died": 1307,
      "safe": 1308,
      "continued": 1309,
      "field": 1310,
      "surpr": 1311,
      "blow": 1312,
      "friends": 1313,
      "ph": 1314,
      "du": 1315,
      "fro": 1316,
      "none": 1317,
      "ordered": 1318,
      "drag": 1319,
      "box": 1320,
      "appro": 1321,
      "gener": 1322,
      "cli": 1323,
      "bran": 1324,
      "val": 1325,
      "ange": 1326,
      "ded": 1327,
      "dire": 1328,
      "jump": 1329,
      "fur": 1330,
      "free": 1331,
      "rent": 1332,
      "cover": 1333,
      "cry": 1334,
      "lle": 1335,
      "tered": 1336,
      "hang": 1337,
      "pretty": 1338,
      "cy": 1339,
      "sit": 1340,
      "sou": 1341,
      "laug": 1342,
      "across": 1343,
      "bid": 1344,
      "bade": 1345,
      "nat": 1346,
      "tail": 1347,
      "With": 1348,
      "crow": 1349,
      "laugh": 1350,
      "case": 1351,
      "fellow": 1352,
      "laughed": 1353,
      "Ind": 1354,
      "Where": 1355,
      "quickly": 1356,
      "ments": 1357,
      "learn": 1358,
      "meet": 1359,
      "horses": 1360,
      "fing": 1361,
      "uring": 1362,
      "loved": 1363,
      "medi": 1364,
      "tried": 1365,
      "throw": 1366,
      "neigh": 1367,
      "struck": 1368,
      "wished": 1369,
      "trouble": 1370,
      "Pin": 1371,
      "cing": 1372,
      "hut": 1373,
      "bur": 1374,
      "whis": 1375,
      "blood": 1376,
      "tched": 1377,
      "wand": 1378,
      "esca": 1379,
      "women": 1380,
      "roy": 1381,
      "six": 1382,
      "Fair": 1383,
      "anim": 1384,
      "stri": 1385,
      "mus": 1386,
      "nes": 1387,
      "chur": 1388,
      "pull": 1389,
      "pose": 1390,
      "An": 1391,
      "eth": 1392,
      "gain": 1393,
      "around": 1394,
      "ool": 1395,
      "sad": 1396,
      "ali": 1397,
      "rage": 1398,
      "seeing": 1399,
      "Little": 1400,
      "ats": 1401,
      "moon": 1402,
      "dan": 1403,
      "ol": 1404,
      "sen": 1405,
      "tin": 1406,
      "chest": 1407,
      "wept": 1408,
      "glass": 1409,
      "Is": 1410,
      "cow": 1411,
      "cra": 1412,
      "ones": 1413,
      "heads": 1414,
      "sli": 1415,
      "weep": 1416,
      "neighb": 1417,
      "beauty": 1418,
      "lord": 1419,
      "does": 1420,
      "merchant": 1421,
      "compan": 1422,
      "waiting": 1423,
      "luck": 1424,
      "splend": 1425,
      "Su": 1426,
      "pleased": 1427,
      "mediately": 1428,
      "den": 1429,
      "anger": 1430,
      "El": 1431,
      "bb": 1432,
      "sol": 1433,
      "col": 1434,
      "deli": 1435,
      "raid": 1436,
      "hardly": 1437,
      "short": 1438,
      "ended": 1439,
      "appear": 1440,
      "ining": 1441,
      "kingdom": 1442,
      "desire": 1443,
      "ror": 1444,
      "rejo": 1445,
      "eror": 1446,
      "beast": 1447,
      "ceed": 1448,
      "adv": 1449,
      "afraid": 1450,
      "vy": 1451,
      "oured": 1452,
      "formed": 1453,
      "forgot": 1454,
      "thinking": 1455,
      "por": 1456,
      "chio": 1457,
      "Sha": 1458,
      "mist": 1459,
      "ref": 1460,
      "ates": 1461,
      "ingly": 1462,
      "Go": 1463,
      "ster": 1464,
      "dressed": 1465,
      "cor": 1466,
      "pen": 1467,
      "amed": 1468,
      "making": 1469,
      "fron": 1470,
      "inner": 1471,
      "fav": 1472,
      "straight": 1473,
      "ided": 1474,
      "rible": 1475,
      "rang": 1476,
      "begged": 1477,
      "ker": 1478,
      "stick": 1479,
      "fox": 1480,
      "certainly": 1481,
      "ason": 1482,
      "kno": 1483,
      "neither": 1484,
      "tic": 1485,
      "middle": 1486,
      "church": 1487,
      "),": 1488,
      "quiet": 1489,
      "fic": 1490,
      "kissed": 1491,
      "Pinoc": 1492,
      "manner": 1493,
      "blue": 1494,
      "fis": 1495,
      "Her": 1496,
      "ati": 1497,
      "Pinocchio": 1498,
      "five": 1499,
      "loud": 1500,
      "law": 1501,
      "already": 1502,
      "chang": 1503,
      "spect": 1504,
      "rank": 1505,
      "Fairy": 1506,
      "cho": 1507,
      "within": 1508,
      "rather": 1509,
      "ations": 1510,
      "Thou": 1511,
      "gy": 1512,
      "wonderful": 1513,
      "believe": 1514,
      "Ro": 1515,
      "cus": 1516,
      "brid": 1517,
      "possible": 1518,
      "mine": 1519,
      "warm": 1520,
      "res": 1521,
      "break": 1522,
      "bound": 1523,
      "instead": 1524,
      "woke": 1525,
      "roll": 1526,
      "posse": 1527,
      "fly": 1528,
      "ia": 1529,
      "shad": 1530,
      "seiz": 1531,
      "usu": 1532,
      "mbled": 1533,
      "instant": 1534,
      "rock": 1535,
      "spread": 1536,
      "wicked": 1537,
      "front": 1538,
      "plain": 1539,
      "cas": 1540,
      "feast": 1541,
      "dest": 1542,
      "immediately": 1543,
      "command": 1544,
      "morrow": 1545,
      "sorrow": 1546,
      "sal": 1547,
      "doing": 1548,
      "marriage": 1549,
      "dri": 1550,
      "ging": 1551,
      "mes": 1552,
      "ject": 1553,
      "aw": 1554,
      "skin": 1555,
      "ot": 1556,
      "poin": 1557,
      "lovely": 1558,
      "Come": 1559,
      "cal": 1560,
      "jest": 1561,
      "account": 1562,
      "stones": 1563,
      "coun": 1564,
      "Th": 1565,
      "sever": 1566,
      "ute": 1567,
      "sub": 1568,
      "treas": 1569,
      "following": 1570,
      "cket": 1571,
      "dam": 1572,
      "pic": 1573,
      "swi": 1574,
      "ating": 1575,
      "temp": 1576,
      "month": 1577,
      "court": 1578,
      "Pe": 1579,
      "ank": 1580,
      "ison": 1581,
      "proper": 1582,
      "Ger": 1583,
      "mir": 1584,
      "sence": 1585,
      "means": 1586,
      "secre": 1587,
      "hole": 1588,
      "clear": 1589,
      "gate": 1590,
      "real": 1591,
      "raised": 1592,
      "whether": 1593,
      "har": 1594,
      "fallen": 1595,
      "aving": 1596,
      "lift": 1597,
      "ik": 1598,
      "try": 1599,
      "ush": 1600,
      "perhaps": 1601,
      "fresh": 1602,
      "listen": 1603,
      "Kha": 1604,
      "gent": 1605,
      "pick": 1606,
      "xed": 1607,
      "alth": 1608,
      "lies": 1609,
      "pay": 1610,
      "aston": 1611,
      "conf": 1612,
      "floor": 1613,
      "fru": 1614,
      "legs": 1615,
      "company": 1616,
      "pair": 1617,
      "diffe": 1618,
      "Good": 1619,
      "past": 1620,
      "iron": 1621,
      "guard": 1622,
      "finished": 1623,
      "boo": 1624,
      "sion": 1625,
      "sear": 1626,
      "sons": 1627,
      "climb": 1628,
      "Ru": 1629,
      "repe": 1630,
      "sail": 1631,
      "servants": 1632,
      "sides": 1633,
      "\"'": 1634,
      "Weze": 1635,
      "song": 1636,
      "grass": 1637,
      "De": 1638,
      "dou": 1639,
      "emb": 1640,
      "Per": 1641,
      "vill": 1642,
      "itself": 1643,
      "chamber": 1644,
      "fortune": 1645,
      "visit": 1646,
      "save": 1647,
      "promised": 1648,
      "thr": 1649,
      "ane": 1650,
      "bene": 1651,
      "boat": 1652,
      "draw": 1653,
      "corner": 1654,
      "dinner": 1655,
      "distance": 1656,
      "mill": 1657,
      "received": 1658,
      "ilt": 1659,
      "handsome": 1660,
      "ife": 1661,
      "Don": 1662,
      "pare": 1663,
      "squ": 1664,
      "evil": 1665,
      "mad": 1666,
      "reason": 1667,
      "least": 1668,
      "beheld": 1669,
      "sisters": 1670,
      "Cur": 1671,
      "mbe": 1672,
      "lives": 1673,
      "outside": 1674,
      "truth": 1675,
      "ash": 1676,
      "herd": 1677,
      "family": 1678,
      "several": 1679,
      ";\"": 1680,
      "bab": 1681,
      "attend": 1682,
      "wis": 1683,
      "beside": 1684,
      "pleasure": 1685,
      "leaves": 1686,
      "thick": 1687,
      "sage": 1688,
      "nest": 1689,
      "respect": 1690,
      "itted": 1691,
      "frightened": 1692,
      "stream": 1693,
      "Wezeer": 1694,
      "sses": 1695,
      "hope": 1696,
      "fect": 1697,
      "mbling": 1698,
      "shoes": 1699,
      "deser": 1700,
      "noise": 1701,
      "broke": 1702,
      "eag": 1703,
      "oth": 1704,
      "ering": 1705,
      "suff": 1706,
      "spring": 1707,
      "expe": 1708,
      "wedding": 1709,
      "Every": 1710,
      "sprang": 1711,
      "ball": 1712,
      "cr": 1713,
      "slept": 1714,
      "Take": 1715,
      "ours": 1716,
      "suc": 1717,
      "nearly": 1718,
      "mistress": 1719,
      "nur": 1720,
      "tch": 1721,
      "shut": 1722,
      "either": 1723,
      "sor": 1724,
      "running": 1725,
      "grave": 1726,
      "except": 1727,
      "changed": 1728,
      "scar": 1729,
      "leg": 1730,
      "pping": 1731,
      "heavy": 1732,
      "tent": 1733,
      "stair": 1734,
      "fered": 1735,
      "peace": 1736,
      "seized": 1737,
      "ngest": 1738,
      "youngest": 1739,
      "monkey": 1740,
      "servant": 1741,
      "bag": 1742,
      "crown": 1743,
      "faith": 1744,
      "served": 1745,
      "kne": 1746,
      "lish": 1747,
      "send": 1748,
      "inside": 1749,
      "ters": 1750,
      "sort": 1751,
      "ater": 1752,
      "lead": 1753,
      "wide": 1754,
      "wee": 1755,
      "rious": 1756,
      "understand": 1757,
      "welve": 1758,
      "au": 1759,
      "ray": 1760,
      "splendid": 1761,
      "talk": 1762,
      "tory": 1763,
      "forward": 1764,
      "sheep": 1765,
      "played": 1766,
      "cent": 1767,
      "chen": 1768,
      "during": 1769,
      "wings": 1770,
      "pot": 1771,
      "fat": 1772,
      "mil": 1773,
      "um": 1774,
      "yard": 1775,
      "basket": 1776,
      "cher": 1777,
      "rope": 1778,
      "happen": 1779,
      "gentle": 1780,
      "cro": 1781,
      "cross": 1782,
      "reach": 1783,
      "oose": 1784,
      "shore": 1785,
      "twelve": 1786,
      "obli": 1787,
      "waited": 1788,
      "Gerda": 1789,
      "rag": 1790,
      "obey": 1791,
      "star": 1792,
      "belong": 1793,
      "termin": 1794,
      "cap": 1795,
      "ular": 1796,
      "tale": 1797,
      "fied": 1798,
      "Some": 1799,
      "angry": 1800,
      "chee": 1801,
      "walk": 1802,
      "quired": 1803,
      "beneath": 1804,
      "doub": 1805,
      "sang": 1806,
      "hig": 1807,
      "broken": 1808,
      "boys": 1809,
      "jesty": 1810,
      "oh": 1811,
      "hare": 1812,
      "watch": 1813,
      "music": 1814,
      "St": 1815,
      "bell": 1816,
      "seek": 1817,
      "lake": 1818,
      "news": 1819,
      "promise": 1820,
      "diffic": 1821,
      "Bar": 1822,
      "shar": 1823,
      "Not": 1824,
      "apple": 1825,
      "spot": 1826,
      "Curdie": 1827,
      "Jack": 1828,
      "fif": 1829,
      "path": 1830,
      "depart": 1831,
      "flower": 1832,
      "tied": 1833,
      "posed": 1834,
      "ages": 1835,
      "orders": 1836,
      "grandmother": 1837,
      "accord": 1838,
      "decla": 1839,
      "iling": 1840,
      "contain": 1841,
      "different": 1842,
      "From": 1843,
      "ears": 1844,
      "streng": 1845,
      "cely": 1846,
      "comes": 1847,
      "walls": 1848,
      "ired": 1849,
      "ina": 1850,
      "oun": 1851,
      "roof": 1852,
      "shop": 1853,
      "mounted": 1854,
      "eldest": 1855,
      "rat": 1856,
      "seated": 1857,
      "determin": 1858,
      "shone": 1859,
      "ago": 1860,
      "cru": 1861,
      "mit": 1862,
      "feh": 1863,
      "itten": 1864,
      "getting": 1865,
      "steps": 1866,
      "ii": 1867,
      "poet": 1868,
      "descri": 1869,
      "service": 1870,
      "started": 1871,
      "Ar": 1872,
      "ming": 1873,
      "sack": 1874,
      "beard": 1875,
      "inning": 1876,
      "singing": 1877,
      "escape": 1878,
      "mor": 1879,
      "change": 1880,
      "slaves": 1881,
      "island": 1882,
      "moved": 1883,
      "eg": 1884,
      "sell": 1885,
      "move": 1886,
      "sky": 1887,
      "mbered": 1888,
      "Je": 1889,
      "jumped": 1890,
      "arose": 1891,
      "state": 1892,
      "lion": 1893,
      "wenty": 1894,
      "Cali": 1895,
      "Qu": 1896,
      "crying": 1897,
      "Whi": 1898,
      "turning": 1899,
      "AN": 1900,
      "allow": 1901,
      "shout": 1902,
      "cons": 1903,
      "aking": 1904,
      "tong": 1905,
      "shook": 1906,
      "fairy": 1907,
      "branches": 1908,
      "din": 1909,
      "feather": 1910,
      "sometimes": 1911,
      "ledge": 1912,
      "strength": 1913,
      "Caliph": 1914,
      "Egy": 1915,
      "fan": 1916,
      "reed": 1917,
      "cot": 1918,
      "arer": 1919,
      "ugly": 1920,
      "ild": 1921,
      "aged": 1922,
      "spir": 1923,
      "bottom": 1924,
      "shadow": 1925,
      "ned": 1926,
      "hot": 1927,
      "leefeh": 1928,
      "usual": 1929,
      "Of": 1930,
      "book": 1931,
      "fight": 1932,
      "tur": 1933,
      "merch": 1934,
      "content": 1935,
      "summer": 1936,
      "further": 1937,
      "Khaleefeh": 1938,
      "aven": 1939,
      "phe": 1940,
      "wear": 1941,
      "dawn": 1942,
      "knowing": 1943,
      "comfort": 1944,
      "hungry": 1945,
      "soft": 1946,
      "ceeded": 1947,
      "possess": 1948,
      "pes": 1949,
      "thered": 1950,
      "ceased": 1951,
      "pleasant": 1952,
      "huge": 1953,
      "tended": 1954,
      "soul": 1955,
      "born": 1956,
      "noticed": 1957,
      "honour": 1958,
      "Snow": 1959,
      "wilt": 1960,
      "gro": 1961,
      "twenty": 1962,
      "var": 1963,
      "imag": 1964,
      "satis": 1965,
      "learned": 1966,
      "lu": 1967,
      "twi": 1968,
      "remember": 1969,
      "fisher": 1970,
      "determined": 1971,
      "ws": 1972,
      "anx": 1973,
      "living": 1974,
      "colle": 1975,
      "mention": 1976,
      "closed": 1977,
      "pulled": 1978,
      "dec": 1979,
      "anyone": 1980,
      "touched": 1981,
      "secret": 1982,
      "lifted": 1983,
      "fig": 1984,
      "iant": 1985,
      "ping": 1986,
      "enjoy": 1987,
      "shining": 1988,
      "ishment": 1989,
      "walking": 1990,
      "human": 1991,
      "weeping": 1992,
      "fer": 1993,
      "rise": 1994,
      "inv": 1995,
      "shes": 1996,
      "However": 1997,
      "ell": 1998,
      "pper": 1999,
      "eaten": 2000,
      "tast": 2001,
      "These": 2002,
      "quar": 2003,
      "grief": 2004,
      "Ivan": 2005,
      "iv": 2006,
      "mur": 2007,
      "wre": 2008,
      "noble": 2009,
      "added": 2010,
      "test": 2011,
      "single": 2012,
      "sy": 2013,
      "swall": 2014,
      "deal": 2015,
      "hours": 2016,
      "eating": 2017,
      "please": 2018,
      "question": 2019,
      "pun": 2020,
      "consent": 2021,
      "presence": 2022,
      "delighted": 2023,
      "royal": 2024,
      "Man": 2025,
      "kit": 2026,
      "late": 2027,
      "zed": 2028,
      "alive": 2029,
      "pet": 2030,
      "board": 2031,
      "thoughts": 2032,
      "cloth": 2033,
      "viz": 2034,
      "obliged": 2035,
      "knife": 2036,
      "although": 2037,
      "ific": 2038,
      "thanked": 2039,
      "girls": 2040,
      "jud": 2041,
      "lit": 2042,
      "za": 2043,
      "hood": 2044,
      "coat": 2045,
      "sharp": 2046,
      "kitchen": 2047,
      "ny": 2048,
      "yes": 2049,
      "meat": 2050,
      "stranger": 2051,
      "drank": 2052,
      "winter": 2053,
      "rushed": 2054,
      "buy": 2055,
      "stretched": 2056,
      "remembered": 2057,
      "pict": 2058,
      "Peter": 2059,
      "village": 2060,
      "Deen": 2061,
      "stop": 2062,
      "early": 2063,
      "ladies": 2064,
      "disappeared": 2065,
      "easily": 2066,
      "pointed": 2067,
      "fruit": 2068,
      "parent": 2069,
      "ben": 2070,
      "tw": 2071,
      "lest": 2072,
      "vers": 2073,
      "sooner": 2074,
      "dragon": 2075,
      "knight": 2076,
      "tro": 2077,
      "hide": 2078,
      "chance": 2079,
      "lamp": 2080,
      "lose": 2081,
      "ib": 2082,
      "remar": 2083,
      "enchant": 2084,
      "clever": 2085,
      "heaven": 2086,
      "number": 2087,
      "duck": 2088,
      "kh": 2089,
      "rub": 2090,
      "drove": 2091,
      "Con": 2092,
      "ges": 2093,
      "mour": 2094,
      "former": 2095,
      "Once": 2096,
      "mouse": 2097,
      "elder": 2098,
      "finger": 2099,
      "burst": 2100,
      "Hans": 2101,
      "pared": 2102,
      "slow": 2103,
      "lling": 2104,
      "terrible": 2105,
      "rain": 2106,
      "serve": 2107,
      "supper": 2108,
      "nurse": 2109,
      "wound": 2110,
      "stable": 2111,
      "milk": 2112,
      "declared": 2113,
      "fare": 2114,
      "showed": 2115,
      "prepared": 2116,
      "grant": 2117,
      "cit": 2118,
      "cept": 2119,
      "aint": 2120,
      "daughters": 2121,
      "surprise": 2122,
      "dance": 2123,
      "peas": 2124,
      "roud": 2125,
      "idea": 2126,
      "IN": 2127,
      "bri": 2128,
      "pas": 2129,
      "exac": 2130,
      "rance": 2131,
      "doubt": 2132,
      "awoke": 2133,
      "cook": 2134,
      "reward": 2135,
      "tily": 2136,
      "teen": 2137,
      "acqu": 2138,
      "ountain": 2139,
      "build": 2140,
      "catch": 2141,
      "Me": 2142,
      "lin": 2143,
      "hearing": 2144,
      "emperor": 2145,
      "listened": 2146,
      "See": 2147,
      "Very": 2148,
      "gall": 2149,
      "pocket": 2150,
      "happiness": 2151,
      "built": 2152,
      "plan": 2153,
      "trans": 2154,
      ",--": 2155,
      "gif": 2156,
      "ceive": 2157,
      "guest": 2158,
      "mountains": 2159,
      "danger": 2160,
      "houses": 2161,
      "bitter": 2162,
      "Gre": 2163,
      "av": 2164,
      "dry": 2165,
      "mort": 2166,
      "tte": 2167,
      "ham": 2168,
      "tering": 2169,
      "clean": 2170,
      "gaze": 2171,
      "parents": 2172,
      ".,": 2173,
      "Se": 2174,
      "os": 2175,
      "rolled": 2176,
      "whatever": 2177,
      "male": 2178,
      "div": 2179,
      "ctly": 2180,
      "letter": 2181,
      "common": 2182,
      "written": 2183,
      "laughing": 2184,
      "repeated": 2185,
      "ax": 2186,
      "fu": 2187,
      "scre": 2188,
      "wave": 2189,
      "pered": 2190,
      "direction": 2191,
      "Are": 2192,
      "Po": 2193,
      "Re": 2194,
      "pan": 2195,
      "behold": 2196,
      "aded": 2197,
      "wolf": 2198,
      "Ire": 2199,
      "vel": 2200,
      "wake": 2201,
      "mighty": 2202,
      "brave": 2203,
      "ale": 2204,
      "nose": 2205,
      "azir": 2206,
      "favour": 2207,
      "wore": 2208,
      "peri": 2209,
      "playing": 2210,
      "generally": 2211,
      "wandered": 2212,
      "sorry": 2213,
      "Pers": 2214,
      "pra": 2215,
      "obtain": 2216,
      "talking": 2217,
      "damsel": 2218,
      "Wazir": 2219,
      "lly": 2220,
      "ext": 2221,
      "bath": 2222,
      "everyone": 2223,
      ").": 2224,
      "sme": 2225,
      "utes": 2226,
      "teeth": 2227,
      "precious": 2228,
      "search": 2229,
      "gn": 2230,
      "tall": 2231,
      "heap": 2232,
      "thine": 2233,
      "net": 2234,
      "fi": 2235,
      "stuff": 2236,
      "Next": 2237,
      "mat": 2238,
      "zar": 2239,
      "leap": 2240,
      "leaving": 2241,
      "cost": 2242,
      "erstood": 2243,
      "thank": 2244,
      "Ba": 2245,
      "Will": 2246,
      "ele": 2247,
      "sna": 2248,
      "forget": 2249,
      "understood": 2250,
      "forgotten": 2251,
      "flying": 2252,
      "gle": 2253,
      "ras": 2254,
      "ces": 2255,
      "blind": 2256,
      "tongue": 2257,
      "cir": 2258,
      "harm": 2259,
      "proud": 2260,
      "rer": 2261,
      "Thus": 2262,
      "tower": 2263,
      "pear": 2264,
      "ils": 2265,
      "whereupon": 2266,
      "mble": 2267,
      "courage": 2268,
      "fortun": 2269,
      "beasts": 2270,
      "scarcely": 2271,
      "Emp": 2272,
      "giving": 2273,
      "hunting": 2274,
      "nice": 2275,
      "advent": 2276,
      "lic": 2277,
      "spite": 2278,
      "viol": 2279,
      "windows": 2280,
      "yellow": 2281,
      "Fa": 2282,
      "uk": 2283,
      "sadd": 2284,
      "stairs": 2285,
      "!--": 2286,
      "Just": 2287,
      "Sun": 2288,
      "dread": 2289,
      "pati": 2290,
      "reco": 2291,
      "uncle": 2292,
      "knocked": 2293,
      "coo": 2294,
      "appearance": 2295,
      "fal": 2296,
      "uch": 2297,
      "hid": 2298,
      "press": 2299,
      "crept": 2300,
      "occas": 2301,
      "surround": 2302,
      "advice": 2303,
      "Rudy": 2304,
      "throne": 2305,
      "exactly": 2306,
      "Your": 2307,
      "blo": 2308,
      "zz": 2309,
      "robe": 2310,
      "ption": 2311,
      "ink": 2312,
      "shoulders": 2313,
      "prison": 2314,
      "carefully": 2315,
      "cord": 2316,
      "iers": 2317,
      "ride": 2318,
      "uttered": 2319,
      "som": 2320,
      "afar": 2321,
      "magn": 2322,
      "wealth": 2323,
      "agreed": 2324,
      "store": 2325,
      "shalt": 2326,
      "grown": 2327,
      "Kay": 2328,
      "thread": 2329,
      "shep": 2330,
      "fol": 2331,
      "isted": 2332,
      "mission": 2333,
      "business": 2334,
      "OF": 2335,
      "sick": 2336,
      "roses": 2337,
      "fetch": 2338,
      "accept": 2339,
      "spent": 2340,
      "minutes": 2341,
      "breast": 2342,
      "thie": 2343,
      "asse": 2344,
      "hidden": 2345,
      "allowed": 2346,
      "ctor": 2347,
      "caused": 2348,
      "grey": 2349,
      "ety": 2350,
      "comm": 2351,
      "doors": 2352,
      "surprised": 2353,
      "fate": 2354,
      "ile": 2355,
      "ione": 2356,
      "clou": 2357,
      "holding": 2358,
      "treasure": 2359,
      "ox": 2360,
      "tian": 2361,
      "shoe": 2362,
      "feeling": 2363,
      "burning": 2364,
      "neighbour": 2365,
      "fisherman": 2366,
      "Never": 2367,
      "cure": 2368,
      "dust": 2369,
      "pity": 2370,
      "firm": 2371,
      "silent": 2372,
      "runk": 2373,
      "condition": 2374,
      "animal": 2375,
      "climbed": 2376,
      "?--": 2377,
      "Tell": 2378,
      "Wa": 2379,
      "groom": 2380,
      "horn": 2381,
      "ykh": 2382,
      "ashed": 2383,
      "mead": 2384,
      "dogs": 2385,
      "point": 2386,
      "knows": 2387,
      "silk": 2388,
      "beyond": 2389,
      "astonished": 2390,
      "shot": 2391,
      "wooden": 2392,
      "port": 2393,
      "ured": 2394,
      "wra": 2395,
      "hither": 2396,
      "besides": 2397,
      "dev": 2398,
      "affair": 2399,
      "exc": 2400,
      "shape": 2401,
      "months": 2402,
      "magnific": 2403,
      "Pre": 2404,
      "vain": 2405,
      "inquired": 2406,
      "edge": 2407,
      "cock": 2408,
      "watched": 2409,
      "paper": 2410,
      "empty": 2411,
      "Par": 2412,
      "rence": 2413,
      "clu": 2414,
      "flung": 2415,
      "drop": 2416,
      "related": 2417,
      "Marione": 2418,
      "easy": 2419,
      "EN": 2420,
      "OR": 2421,
      "wing": 2422,
      "ents": 2423,
      "worth": 2424,
      "consid": 2425,
      "vanished": 2426,
      "Majesty": 2427,
      "soldier": 2428,
      "miles": 2429,
      "rob": 2430,
      "wrong": 2431,
      "fields": 2432,
      "slowly": 2433,
      "Gu": 2434,
      "bi": 2435,
      "aro": 2436,
      "wels": 2437,
      "gobl": 2438,
      "lot": 2439,
      "suit": 2440,
      "farmer": 2441,
      "spoken": 2442,
      "presently": 2443,
      "fastened": 2444,
      "hanging": 2445,
      "subject": 2446,
      "baby": 2447,
      "merchants": 2448,
      "shepherd": 2449,
      "clouds": 2450,
      "habit": 2451,
      "agree": 2452,
      "shine": 2453,
      "aff": 2454,
      "buried": 2455,
      "paid": 2456,
      "ST": 2457,
      "bs": 2458,
      "dir": 2459,
      "resol": 2460,
      "llar": 2461,
      "offered": 2462,
      "leaf": 2463,
      "butter": 2464,
      "laus": 2465,
      "fact": 2466,
      "market": 2467,
      "grace": 2468,
      "midst": 2469,
      "magician": 2470,
      "fingers": 2471,
      "danced": 2472,
      "higher": 2473,
      "recogn": 2474,
      "ech": 2475,
      "ony": 2476,
      "plent": 2477,
      "soldiers": 2478,
      "Mr": 2479,
      "bat": 2480,
      "below": 2481,
      "unless": 2482,
      "finding": 2483,
      "approached": 2484,
      "dwell": 2485,
      "rely": 2486,
      "thro": 2487,
      "espe": 2488,
      "conce": 2489,
      "proceeded": 2490,
      "jewels": 2491,
      "streets": 2492,
      "charm": 2493,
      "exam": 2494,
      "vessel": 2495,
      "While": 2496,
      "Cai": 2497,
      "rit": 2498,
      "nobody": 2499,
      "cking": 2500,
      "capt": 2501,
      "worse": 2502,
      "apart": 2503,
      "bless": 2504,
      "prof": 2505,
      "presented": 2506,
      "bank": 2507,
      "anxious": 2508,
      "Cairo": 2509,
      "Have": 2510,
      "Ja": 2511,
      "sus": 2512,
      "atta": 2513,
      "aring": 2514,
      "beam": 2515,
      "greatly": 2516,
      "afterwards": 2517,
      "birth": 2518,
      "stepped": 2519,
      "warf": 2520,
      "dad": 2521,
      "erable": 2522,
      "host": 2523,
      "merry": 2524,
      "Chris": 2525,
      "bridge": 2526,
      "Marionette": 2527,
      "latter": 2528,
      "ogre": 2529,
      "stories": 2530,
      "telling": 2531,
      "desired": 2532,
      "persons": 2533,
      "especi": 2534,
      "bowed": 2535,
      "bought": 2536,
      "sl": 2537,
      "ens": 2538,
      "sake": 2539,
      "els": 2540,
      "angu": 2541,
      "haste": 2542,
      "aj": 2543,
      "cand": 2544,
      "nut": 2545,
      "condu": 2546,
      "approach": 2547,
      "commanded": 2548,
      "Egypt": 2549,
      "May": 2550,
      "em": 2551,
      "smo": 2552,
      "ashes": 2553,
      "carrying": 2554,
      "desc": 2555,
      "quietly": 2556,
      "mentioned": 2557,
      "Night": 2558,
      "eral": 2559,
      "itu": 2560,
      "unuch": 2561,
      "tage": 2562,
      "Father": 2563,
      "Tzar": 2564,
      "atest": 2565,
      "guess": 2566,
      "hastened": 2567,
      "sounded": 2568,
      "companions": 2569,
      "counsel": 2570,
      "Perhaps": 2571,
      "farewell": 2572,
      "Pro": 2573,
      "Up": 2574,
      "cous": 2575,
      "fond": 2576,
      "tled": 2577,
      "aled": 2578,
      "spare": 2579,
      "perfect": 2580,
      "comple": 2581,
      "enemy": 2582,
      "Shah": 2583,
      "expect": 2584,
      "satisfied": 2585,
      "Irene": 2586,
      "thrown": 2587,
      "necess": 2588,
      "price": 2589,
      "trust": 2590,
      "stayed": 2591,
      "whispered": 2592,
      "drin": 2593,
      "mess": 2594,
      "alley": 2595,
      "female": 2596,
      "speech": 2597,
      "gathered": 2598,
      "sleeping": 2599,
      "welcome": 2600,
      "natur": 2601,
      "rejoiced": 2602,
      "cottage": 2603,
      "folk": 2604,
      "eed": 2605,
      "fun": 2606,
      "yed": 2607,
      "refle": 2608,
      "nearer": 2609,
      "upid": 2610,
      "forehead": 2611,
      "pressed": 2612,
      "carriage": 2613,
      "kindness": 2614,
      "destroy": 2615,
      "meadow": 2616,
      "Give": 2617,
      "fier": 2618,
      "rup": 2619,
      "wro": 2620,
      "rice": 2621,
      "cave": 2622,
      "trying": 2623,
      "lips": 2624,
      "lain": 2625,
      "greet": 2626,
      "ici": 2627,
      "perceived": 2628,
      "farther": 2629,
      "chair": 2630,
      "occur": 2631,
      "instantly": 2632,
      "swim": 2633,
      "Sa": 2634,
      "sought": 2635,
      "thed": 2636,
      "stars": 2637,
      "comb": 2638,
      "begin": 2639,
      "creatures": 2640,
      "sank": 2641,
      "ann": 2642,
      "incre": 2643,
      "worn": 2644,
      "greater": 2645,
      "storm": 2646,
      "feathers": 2647,
      "Mus": 2648,
      "pill": 2649,
      "zing": 2650,
      "stuck": 2651,
      "shri": 2652,
      "watching": 2653,
      "game": 2654,
      "amongst": 2655,
      "dancing": 2656,
      "Emperor": 2657,
      "plenty": 2658,
      "pol": 2659,
      "nights": 2660,
      "drawn": 2661,
      "breath": 2662,
      "hunger": 2663,
      "purpose": 2664,
      "Bad": 2665,
      "orig": 2666,
      "wid": 2667,
      "sau": 2668,
      "notice": 2669,
      "fection": 2670,
      "race": 2671,
      "mage": 2672,
      "offer": 2673,
      "impossible": 2674,
      "lighted": 2675,
      "treated": 2676,
      "lands": 2677,
      "believed": 2678,
      "shouted": 2679,
      "axe": 2680,
      "saddle": 2681,
      "Sul": 2682,
      "sn": 2683,
      "priest": 2684,
      "especially": 2685,
      "noon": 2686,
      "verses": 2687,
      "brown": 2688,
      "spell": 2689,
      "speaking": 2690,
      "diam": 2691,
      "prayer": 2692,
      "tiny": 2693,
      "picked": 2694,
      "faithful": 2695,
      "reign": 2696,
      "attent": 2697,
      "hion": 2698,
      "broad": 2699,
      "thirst": 2700,
      "branch": 2701,
      "peasant": 2702,
      "Red": 2703,
      "Un": 2704,
      "ake": 2705,
      "bones": 2706,
      "nine": 2707,
      "ense": 2708,
      "liked": 2709,
      "greatest": 2710,
      "according": 2711,
      "waves": 2712,
      "messeng": 2713,
      "fit": 2714,
      "sch": 2715,
      "tomb": 2716,
      "nodd": 2717,
      "cake": 2718,
      "peep": 2719,
      "dropped": 2720,
      "AND": 2721,
      "occasion": 2722,
      "Wo": 2723,
      "bled": 2724,
      "phy": 2725,
      "vin": 2726,
      "passing": 2727,
      "kiss": 2728,
      "difficul": 2729,
      "named": 2730,
      "receive": 2731,
      "terri": 2732,
      "demand": 2733,
      "capit": 2734,
      "princes": 2735,
      "knees": 2736,
      "Du": 2737,
      "len": 2738,
      "zen": 2739,
      "sequ": 2740,
      "amuse": 2741,
      "act": 2742,
      "shoulder": 2743,
      "darkness": 2744,
      "growing": 2745,
      "vizir": 2746,
      "Hun": 2747,
      "dut": 2748,
      "equ": 2749,
      "mas": 2750,
      "onder": 2751,
      "seat": 2752,
      "shel": 2753,
      "touch": 2754,
      "ER": 2755,
      "Nor": 2756,
      "meant": 2757,
      "kets": 2758,
      "tight": 2759,
      "using": 2760,
      "arest": 2761,
      "places": 2762,
      "smith": 2763,
      "partic": 2764,
      "Indeed": 2765,
      "success": 2766,
      "cheeks": 2767,
      "twice": 2768,
      "ka": 2769,
      "va": 2770,
      "lear": 2771,
      "rocks": 2772,
      "loss": 2773,
      "cloak": 2774,
      "reply": 2775,
      "discovered": 2776,
      "glor": 2777,
      "Arabs": 2778,
      "stork": 2779,
      "swallow": 2780,
      "dish": 2781,
      "fas": 2782,
      "furn": 2783,
      "dep": 2784,
      "everybody": 2785,
      "happily": 2786,
      "putting": 2787,
      "wondered": 2788,
      "opening": 2789,
      "surely": 2790,
      "cousin": 2791,
      "origin": 2792,
      "Can": 2793,
      "event": 2794,
      "sultan": 2795,
      "vic": 2796,
      "reg": 2797,
      "bold": 2798,
      "tales": 2799,
      "didn": 2800,
      "marble": 2801,
      "riding": 2802,
      "hurt": 2803,
      "frog": 2804,
      "crowd": 2805,
      "slipped": 2806,
      "custom": 2807,
      "property": 2808,
      "suffer": 2809,
      "taste": 2810,
      "cate": 2811,
      "eight": 2812,
      "fled": 2813,
      "win": 2814,
      "choose": 2815,
      "suf": 2816,
      "beginning": 2817,
      "blew": 2818,
      "ances": 2819,
      "pale": 2820,
      "posite": 2821,
      "picture": 2822,
      "Faith": 2823,
      "Ho": 2824,
      "Sig": 2825,
      "langu": 2826,
      "asan": 2827,
      "weak": 2828,
      "managed": 2829,
      "deer": 2830,
      "concer": 2831,
      "prote": 2832,
      "despair": 2833,
      "bushes": 2834,
      "maidens": 2835,
      "gazelle": 2836,
      "Know": 2837,
      "Tom": 2838,
      "ial": 2839,
      "deed": 2840,
      "ester": 2841,
      "curious": 2842,
      "travel": 2843,
      "pent": 2844,
      "heed": 2845,
      "roo": 2846,
      "unhappy": 2847,
      "ably": 2848,
      "post": 2849,
      "Heaven": 2850,
      "Only": 2851,
      "Look": 2852,
      "jack": 2853,
      "ainted": 2854,
      "import": 2855,
      "animals": 2856,
      "swift": 2857,
      "Christian": 2858,
      "bor": 2859,
      "manage": 2860,
      "ardon": 2861,
      "fold": 2862,
      "seem": 2863,
      "marve": 2864,
      "midnight": 2865,
      "travelled": 2866,
      "bottle": 2867,
      "expected": 2868,
      "Ras": 2869,
      "mn": 2870,
      "pat": 2871,
      "rad": 2872,
      "sca": 2873,
      "tive": 2874,
      "doll": 2875,
      "isten": 2876,
      "pluck": 2877,
      "summon": 2878,
      "softly": 2879,
      "salut": 2880,
      "Mean": 2881,
      "Present": 2882,
      "itude": 2883,
      "capital": 2884,
      "Hal": 2885,
      "goose": 2886,
      "lst": 2887,
      "mare": 2888,
      "stoo": 2889,
      "stal": 2890,
      "verse": 2891,
      "sheykh": 2892,
      "rily": 2893,
      "tie": 2894,
      "smiled": 2895,
      "suppose": 2896,
      "Din": 2897,
      "ON": 2898,
      "Pi": 2899,
      "dare": 2900,
      "drown": 2901,
      "opp": 2902,
      "iny": 2903,
      "iss": 2904,
      "wash": 2905,
      "weight": 2906,
      "terror": 2907,
      "ending": 2908,
      "exceed": 2909,
      "kerchief": 2910,
      "week": 2911,
      "instru": 2912,
      "ities": 2913,
      "saved": 2914,
      "ously": 2915,
      "rooms": 2916,
      "fourth": 2917,
      "hills": 2918,
      "Suddenly": 2919,
      "figure": 2920,
      "complete": 2921,
      "wrote": 2922,
      "particular": 2923,
      "Cour": 2924,
      "Fir": 2925,
      "Le": 2926,
      "Ti": 2927,
      "bla": 2928,
      "ius": 2929,
      "stro": 2930,
      "robb": 2931,
      "opposite": 2932,
      "dared": 2933,
      "kinds": 2934,
      "Before": 2935,
      "magnificent": 2936,
      "captain": 2937,
      "Pet": 2938,
      "dru": 2939,
      "fountain": 2940,
      "regard": 2941,
      "washed": 2942,
      "ama": 2943,
      "ician": 2944,
      "presents": 2945,
      "attendants": 2946,
      "surrounded": 2947,
      "drinking": 2948,
      "Ab": 2949,
      "Gen": 2950,
      "nature": 2951,
      "rush": 2952,
      "valley": 2953,
      "health": 2954,
      "reli": 2955,
      "entire": 2956,
      "rested": 2957,
      "pige": 2958,
      "tailor": 2959,
      "spirit": 2960,
      "pearls": 2961,
      "battle": 2962,
      "Sigur": 2963,
      "Lord": 2964,
      "bal": 2965,
      "bloo": 2966,
      "eunuch": 2967,
      "vie": 2968,
      "weather": 2969,
      "Noor": 2970,
      "steal": 2971,
      "careful": 2972,
      "simp": 2973,
      "hurried": 2974,
      "Alas": 2975,
      "gallop": 2976,
      "Sulan": 2977,
      "Presently": 2978,
      "Da": 2979,
      "Raj": 2980,
      "fut": 2981,
      "lone": 2982,
      "ising": 2983,
      "ingale": 2984,
      "ident": 2985,
      "shell": 2986,
      "raven": 2987,
      "share": 2988,
      "plant": 2989,
      "writ": 2990,
      "refused": 2991,
      "eagle": 2992,
      "Eng": 2993,
      "Finn": 2994,
      "narrow": 2995,
      "stir": 2996,
      "stupid": 2997,
      "alo": 2998,
      "permission": 2999,
      "horrible": 3000,
      "monster": 3001,
      "beating": 3002,
      "bitterly": 3003,
      "Sigurd": 3004,
      "Master": 3005,
      "directly": 3006,
      "difficult": 3007,
      "school": 3008,
      "Court": 3009,
      "Petru": 3010,
      "Eu": 3011,
      "rust": 3012,
      "hest": 3013,
      "separ": 3014,
      "demon": 3015,
      "knowledge": 3016,
      "position": 3017,
      "straw": 3018,
      "arrows": 3019,
      "cruel": 3020,
      "invited": 3021,
      "resolved": 3022,
      "nodded": 3023,
      "Europe": 3024,
      "Lad": 3025,
      "flight": 3026,
      "zard": 3027,
      "army": 3028,
      "itch": 3029,
      "beloved": 3030,
      "history": 3031,
      "holy": 3032,
      "liber": 3033,
      "stole": 3034,
      "prevent": 3035,
      "thyself": 3036,
      "vol": 3037,
      "shir": 3038,
      "donkey": 3039,
      "sense": 3040,
      "fancy": 3041,
      "fixed": 3042,
      "bare": 3043,
      "pardon": 3044,
      "ware": 3045,
      "request": 3046,
      "lebr": 3047,
      "celebr": 3048,
      "utter": 3049,
      "chase": 3050,
      "sole": 3051,
      "lock": 3052,
      "--\"": 3053,
      "couple": 3054,
      "talked": 3055,
      "ohn": 3056,
      "departed": 3057,
      "snake": 3058,
      "shrie": 3059,
      "RE": 3060,
      "awake": 3061,
      "bent": 3062,
      "gently": 3063,
      "itor": 3064,
      "lor": 3065,
      "ump": 3066,
      "vir": 3067,
      "thor": 3068,
      "befallen": 3069,
      "inder": 3070,
      "accomp": 3071,
      "opin": 3072,
      "handed": 3073,
      "calling": 3074,
      "trembling": 3075,
      "minute": 3076,
      "observed": 3077,
      "cattle": 3078,
      "swam": 3079,
      "troop": 3080,
      "blos": 3081,
      "esterday": 3082,
      "Even": 3083,
      "John": 3084,
      "Two": 3085,
      "informed": 3086,
      "asha": 3087,
      "rod": 3088,
      "exe": 3089,
      "woods": 3090,
      "silence": 3091,
      "falling": 3092,
      "burnt": 3093,
      "Indian": 3094,
      "astonishment": 3095,
      "fifty": 3096,
      "phet": 3097,
      "hound": 3098,
      "thunder": 3099,
      "assu": 3100,
      "forced": 3101,
      "ury": 3102,
      "worthy": 3103,
      "thanks": 3104,
      "lower": 3105,
      "ordin": 3106,
      "grandfather": 3107,
      "gladly": 3108,
      "Meanwhile": 3109,
      "robbers": 3110,
      "Har": 3111,
      "Lo": 3112,
      "later": 3113,
      "hero": 3114,
      "onds": 3115,
      "aside": 3116,
      "feed": 3117,
      "goes": 3118,
      "yours": 3119,
      "dishes": 3120,
      "loudly": 3121,
      "mortal": 3122,
      "fashion": 3123,
      "future": 3124,
      "Bed": 3125,
      "ko": 3126,
      "inte": 3127,
      "rot": 3128,
      "tern": 3129,
      "quire": 3130,
      "sport": 3131,
      "appointed": 3132,
      "kindly": 3133,
      "cloud": 3134,
      "lucky": 3135,
      "portion": 3136,
      "eager": 3137,
      "consented": 3138,
      "Great": 3139,
      "charming": 3140,
      "natural": 3141,
      "execut": 3142,
      "gers": 3143,
      "ize": 3144,
      "slay": 3145,
      "pest": 3146,
      "worked": 3147,
      "Soon": 3148,
      "foolish": 3149,
      "various": 3150,
      "gift": 3151,
      "throat": 3152,
      "Musli": 3153,
      "Faithful": 3154,
      "Giant": 3155,
      "task": 3156,
      "ud": 3157,
      "unto": 3158,
      "unning": 3159,
      "makes": 3160,
      "looks": 3161,
      "experi": 3162,
      "Thereupon": 3163,
      "travell": 3164,
      "difficulty": 3165,
      "Ian": 3166,
      "chim": 3167,
      "mitted": 3168,
      "pig": 3169,
      "wet": 3170,
      "aloud": 3171,
      "tire": 3172,
      "ourselves": 3173,
      "fault": 3174,
      "hearts": 3175,
      "sunshine": 3176,
      "ships": 3177,
      "purse": 3178,
      "prayers": 3179,
      "meaning": 3180,
      "companion": 3181,
      "bells": 3182,
      "egg": 3183,
      "possession": 3184,
      "remark": 3185,
      "Tree": 3186,
      "vern": 3187,
      "unt": 3188,
      "stove": 3189,
      "offic": 3190,
      "cheer": 3191,
      "flesh": 3192,
      "tender": 3193,
      "Beaut": 3194,
      "rising": 3195,
      "trick": 3196,
      "escaped": 3197,
      "Quoth": 3198,
      "decided": 3199,
      "dreadful": 3200,
      "suffered": 3201,
      "language": 3202,
      "lof": 3203,
      "god": 3204,
      "usion": 3205,
      "bore": 3206,
      "spark": 3207,
      "stepmother": 3208,
      "crack": 3209,
      "rubbed": 3210,
      "Persian": 3211,
      "false": 3212,
      "ians": 3213,
      "lan": 3214,
      "liness": 3215,
      "adise": 3216,
      "taught": 3217,
      "waters": 3218,
      "dies": 3219,
      "names": 3220,
      "genius": 3221,
      "bidding": 3222,
      "porter": 3223,
      "imagine": 3224,
      "consider": 3225,
      "necessary": 3226,
      ".)": 3227,
      "Bab": 3228,
      "mal": 3229,
      "poured": 3230,
      "inhabit": 3231,
      "remon": 3232,
      "meal": 3233,
      "welt": 3234,
      "advan": 3235,
      "wol": 3236,
      "ighed": 3237,
      "faces": 3238,
      "hunt": 3239,
      "questions": 3240,
      "charac": 3241,
      "bush": 3242,
      "cows": 3243,
      "treasures": 3244,
      "gentleman": 3245,
      "quarter": 3246,
      "guests": 3247,
      "patience": 3248,
      "bund": 3249,
      "ley": 3250,
      "lean": 3251,
      "owl": 3252,
      "lace": 3253,
      "teach": 3254,
      "longing": 3255,
      "dying": 3256,
      "cient": 3257,
      "fairies": 3258,
      "scra": 3259,
      "troubled": 3260,
      "books": 3261,
      "comfortable": 3262,
      "enchanted": 3263,
      "\";": 3264,
      "..": 3265,
      "Did": 3266,
      "bly": 3267,
      "recovered": 3268,
      "arran": 3269,
      "whilst": 3270,
      "mbers": 3271,
      "bringing": 3272,
      "sorts": 3273,
      "Sea": 3274,
      "smell": 3275,
      "phys": 3276,
      "opinion": 3277,
      "Drag": 3278,
      "East": 3279,
      "cunning": 3280,
      "lid": 3281,
      "salt": 3282,
      "entre": 3283,
      "delay": 3284,
      "locked": 3285,
      "owner": 3286,
      "handkerchief": 3287,
      "perform": 3288,
      "speed": 3289,
      "emplo": 3290,
      "breakfast": 3291,
      "jackal": 3292,
      "dwelt": 3293,
      "fra": 3294,
      "tran": 3295,
      "yesterday": 3296,
      "arch": 3297,
      "ented": 3298,
      "note": 3299,
      "copper": 3300,
      "dove": 3301,
      "likely": 3302,
      "beggar": 3303,
      "countries": 3304,
      "smoo": 3305,
      "occup": 3306,
      "robber": 3307,
      "attention": 3308,
      "Thi": 3309,
      "ald": 3310,
      "dwarf": 3311,
      "kin": 3312,
      "whir": 3313,
      "lod": 3314,
      "whence": 3315,
      "fail": 3316,
      "Hel": 3317,
      "loose": 3318,
      "rows": 3319,
      "mercy": 3320,
      "hastily": 3321,
      "passion": 3322,
      "glit": 3323,
      "object": 3324,
      "ctions": 3325,
      "strike": 3326,
      "gained": 3327,
      "tempt": 3328,
      "drawing": 3329,
      "miller": 3330,
      "described": 3331,
      "punishment": 3332,
      "goblins": 3333,
      "General": 3334,
      "Raja": 3335,
      "bull": 3336,
      "nun": 3337,
      "oak": 3338,
      "ya": 3339,
      "ths": 3340,
      "roast": 3341,
      "lored": 3342,
      "convers": 3343,
      "persu": 3344,
      "apples": 3345,
      "fool": 3346,
      "keeper": 3347,
      "excell": 3348,
      "mirror": 3349,
      "Gold": 3350,
      "lou": 3351,
      "rate": 3352,
      "armed": 3353,
      "veil": 3354,
      "wheel": 3355,
      "aming": 3356,
      "tyard": 3357,
      "wond": 3358,
      "miserable": 3359,
      "distant": 3360,
      "deliver": 3361,
      "refuse": 3362,
      "guards": 3363,
      "belonged": 3364,
      "fortunate": 3365,
      "Dragon": 3366,
      "AR": 3367,
      "inform": 3368,
      "oned": 3369,
      "fest": 3370,
      "goat": 3371,
      "lets": 3372,
      "voy": 3373,
      "courtyard": 3374,
      "fishes": 3375,
      "wishes": 3376,
      "desert": 3377,
      "collected": 3378,
      "passage": 3379,
      "osity": 3380,
      "Poor": 3381,
      "18": 3382,
      "Ali": 3383,
      "Far": 3384,
      "Pal": 3385,
      "sailed": 3386,
      "coach": 3387,
      "ards": 3388,
      "express": 3389,
      "shame": 3390,
      "mbs": 3391,
      "discover": 3392,
      "gazed": 3393,
      "sigh": 3394,
      "finest": 3395,
      "hurry": 3396,
      "bidden": 3397,
      "Death": 3398,
      "wisdom": 3399,
      "Prophet": 3400,
      "Shi": 3401,
      "Thu": 3402,
      "cart": 3403,
      "pin": 3404,
      "asses": 3405,
      "wizard": 3406,
      "ceremon": 3407,
      "seems": 3408,
      "maker": 3409,
      "Maj": 3410,
      "burned": 3411,
      "famous": 3412,
      "entertain": 3413,
      "bridegroom": 3414,
      "dragged": 3415,
      "ounced": 3416,
      "lonely": 3417,
      "ordinary": 3418,
      "Fin": 3419,
      "Loo": 3420,
      "glow": 3421,
      "gates": 3422,
      "lmon": 3423,
      "feared": 3424,
      "sudden": 3425,
      "consequ": 3426,
      "ends": 3427,
      "spr": 3428,
      "extre": 3429,
      "younger": 3430,
      "stands": 3431,
      "Shalmon": 3432,
      "umn": 3433,
      "view": 3434,
      "Mart": 3435,
      "rand": 3436,
      "sim": 3437,
      "ues": 3438,
      "wan": 3439,
      "asking": 3440,
      "beak": 3441,
      "ender": 3442,
      "longed": 3443,
      "grate": 3444,
      "throwing": 3445,
      "drive": 3446,
      "acquainted": 3447,
      "messenger": 3448,
      "entirely": 3449,
      "conversation": 3450,
      "Dear": 3451,
      "ners": 3452,
      "slight": 3453,
      "inc": 3454,
      "force": 3455,
      "rah": 3456,
      "bosom": 3457,
      "cts": 3458,
      "produ": 3459,
      "grat": 3460,
      "indeer": 3461,
      "Moon": 3462,
      "abode": 3463,
      "pushed": 3464,
      "confess": 3465,
      "adventures": 3466,
      "increased": 3467,
      "duty": 3468,
      "tore": 3469,
      "memor": 3470,
      "doctor": 3471,
      "sprink": 3472,
      "prepar": 3473,
      "ughter": 3474,
      "resting": 3475,
      "threat": 3476,
      "voices": 3477,
      "visible": 3478,
      "priv": 3479,
      "berries": 3480,
      "possessed": 3481,
      "thief": 3482,
      "Upon": 3483,
      "Palace": 3484,
      "Cat": 3485,
      "gue": 3486,
      "iver": 3487,
      "pse": 3488,
      "thur": 3489,
      "Their": 3490,
      "altogether": 3491,
      "absence": 3492,
      "conside": 3493,
      "setting": 3494,
      "treat": 3495,
      "creep": 3496,
      "joined": 3497,
      "hump": 3498,
      "cured": 3499,
      "grie": 3500,
      "bowl": 3501,
      "highest": 3502,
      "saluted": 3503,
      "Ben": 3504,
      "Still": 3505,
      "iety": 3506,
      "kick": 3507,
      "scold": 3508,
      "ancient": 3509,
      "thither": 3510,
      "wives": 3511,
      "vest": 3512,
      "whither": 3513,
      "accompan": 3514,
      "majesty": 3515,
      "trembled": 3516,
      "effect": 3517,
      "curtain": 3518,
      "entering": 3519,
      "ikin": 3520,
      "considered": 3521,
      "Ibra": 3522,
      "Our": 3523,
      "ili": 3524,
      "heat": 3525,
      "asped": 3526,
      "ides": 3527,
      "vet": 3528,
      "ties": 3529,
      "waist": 3530,
      "courti": 3531,
      "cler": 3532,
      "size": 3533,
      "colour": 3534,
      "usually": 3535,
      "Cha": 3536,
      "Mul": 3537,
      "Many": 3538,
      "blic": 3539,
      "ni": 3540,
      "yonder": 3541,
      "liest": 3542,
      "lament": 3543,
      "cakes": 3544,
      "ilar": 3545,
      "spinning": 3546,
      "helped": 3547,
      "strug": 3548,
      "Taj": 3549,
      "India": 3550,
      "sticks": 3551,
      "advanced": 3552,
      "Sund": 3553,
      "Yet": 3554,
      "ler": 3555,
      "pure": 3556,
      "pap": 3557,
      "rist": 3558,
      "tar": 3559,
      "orge": 3560,
      "unable": 3561,
      "willing": 3562,
      "quoth": 3563,
      "ppers": 3564,
      "stolen": 3565,
      "lted": 3566,
      "larger": 3567,
      "More": 3568,
      "trade": 3569,
      "powerful": 3570,
      "rejoic": 3571,
      "embro": 3572,
      "Martin": 3573,
      "Ale": 3574,
      "High": 3575,
      "LE": 3576,
      "La": 3577,
      "Mad": 3578,
      "OU": 3579,
      "ingu": 3580,
      "ara": 3581,
      "meas": 3582,
      "seeking": 3583,
      "ornam": 3584,
      "everywhere": 3585,
      "spec": 3586,
      "ortun": 3587,
      "smile": 3588,
      "Ifrit": 3589,
      "cries": 3590,
      "busy": 3591,
      "ashing": 3592,
      "screamed": 3593,
      "Mulook": 3594,
      "Sunday": 3595,
      "Am": 3596,
      "Bring": 3597,
      "crab": 3598,
      "ere": 3599,
      "farm": 3600,
      "sir": 3601,
      "warn": 3602,
      "space": 3603,
      "cting": 3604,
      "goods": 3605,
      "serpent": 3606,
      "wondering": 3607,
      "bearing": 3608,
      "signs": 3609,
      "painted": 3610,
      "safely": 3611,
      "Such": 3612,
      "choice": 3613,
      "songs": 3614,
      "respecting": 3615,
      "Jaafar": 3616,
      "First": 3617,
      "Bo": 3618,
      "Dan": 3619,
      "Jo": 3620,
      "gran": 3621,
      "rul": 3622,
      "intended": 3623,
      "add": 3624,
      "ify": 3625,
      "bye": 3626,
      "horror": 3627,
      "wax": 3628,
      "gather": 3629,
      "bargain": 3630,
      "flames": 3631,
      "sadly": 3632,
      "polite": 3633,
      "bundle": 3634,
      "Ge": 3635,
      "Would": 3636,
      "aid": 3637,
      "coff": 3638,
      "drunk": 3639,
      "tles": 3640,
      "rend": 3641,
      "ises": 3642,
      "chback": 3643,
      "weary": 3644,
      "tice": 3645,
      "collar": 3646,
      "upper": 3647,
      "motion": 3648,
      "sper": 3649,
      "extra": 3650,
      "pretended": 3651,
      "mark": 3652,
      "minister": 3653,
      "public": 3654,
      "weeks": 3655,
      "Arthur": 3656,
      "wretched": 3657,
      "brill": 3658,
      "accompanied": 3659,
      "Gover": 3660,
      "Ke": 3661,
      "Lab": 3662,
      "Long": 3663,
      "ail": 3664,
      "scat": 3665,
      "ines": 3666,
      "party": 3667,
      "distingu": 3668,
      "swee": 3669,
      "blows": 3670,
      "delicate": 3671,
      "rejoined": 3672,
      "listening": 3673,
      "containing": 3674,
      "swallowed": 3675,
      "blessing": 3676,
      "celebrated": 3677,
      "Beauty": 3678,
      "smooth": 3679,
      "Having": 3680,
      "Out": 3681,
      "Troll": 3682,
      "inno": 3683,
      "mere": 3684,
      "stam": 3685,
      "staff": 3686,
      "ution": 3687,
      "load": 3688,
      "que": 3689,
      "failed": 3690,
      "spit": 3691,
      "assist": 3692,
      "process": 3693,
      "dresses": 3694,
      "steed": 3695,
      "cutting": 3696,
      "general": 3697,
      "bridle": 3698,
      "rays": 3699,
      "drowned": 3700,
      "glittering": 3701,
      "similar": 3702,
      "Bu": 3703,
      "Wind": 3704,
      "fed": 3705,
      "gin": 3706,
      "hone": 3707,
      "idence": 3708,
      "admir": 3709,
      "whenever": 3710,
      "princesses": 3711,
      "daily": 3712,
      "prov": 3713,
      "sounds": 3714,
      "embra": 3715,
      "ING": 3716,
      "adventure": 3717,
      "STOR": 3718,
      "recognised": 3719,
      "smoke": 3720,
      "shirt": 3721,
      "Governor": 3722,
      "Gru": 3723,
      "Jur": 3724,
      "flies": 3725,
      "wag": 3726,
      "resc": 3727,
      "lease": 3728,
      "alight": 3729,
      "unknown": 3730,
      "perfu": 3731,
      "clock": 3732,
      "brea": 3733,
      "gardens": 3734,
      "travelling": 3735,
      "honor": 3736,
      "favor": 3737,
      "driven": 3738,
      "building": 3739,
      "Bagh": 3740,
      "diamonds": 3741,
      "assured": 3742,
      "wolves": 3743,
      "pond": 3744,
      "lees": 3745,
      "raz": 3746,
      "somewhat": 3747,
      "venge": 3748,
      "vious": 3749,
      "slain": 3750,
      "pursu": 3751,
      "Ahmed": 3752,
      "garments": 3753,
      "charge": 3754,
      "possib": 3755,
      "meeting": 3756,
      "sorrowful": 3757,
      "message": 3758,
      "contained": 3759,
      "Majnun": 3760,
      "Happ": 3761,
      "Hasan": 3762,
      "cil": 3763,
      "dig": 3764,
      "fain": 3765,
      "gun": 3766,
      "ifull": 3767,
      "kings": 3768,
      "poison": 3769,
      "acher": 3770,
      "performed": 3771,
      "wants": 3772,
      "cum": 3773,
      "trad": 3774,
      "neighbours": 3775,
      "delicious": 3776,
      "fruits": 3777,
      "wrapped": 3778,
      "ashamed": 3779,
      "Alex": 3780,
      "Jurgen": 3781,
      "Cic": 3782,
      "Count": 3783,
      "Claus": 3784,
      "Na": 3785,
      "honey": 3786,
      "forty": 3787,
      "probab": 3788,
      "cats": 3789,
      "truly": 3790,
      "intent": 3791,
      "stronger": 3792,
      "delightful": 3793,
      "neighbor": 3794,
      "eggs": 3795,
      "spirits": 3796,
      "approaching": 3797,
      "shelter": 3798,
      "chimney": 3799,
      "Lootie": 3800,
      "Alexand": 3801,
      "Ciccu": 3802,
      "Alad": 3803,
      "Tru": 3804,
      "bits": 3805,
      "dried": 3806,
      "io": 3807,
      "oath": 3808,
      "vish": 3809,
      "invent": 3810,
      "bee": 3811,
      "agger": 3812,
      "ilgri": 3813,
      "overcome": 3814,
      "bette": 3815,
      "zee": 3816,
      "thirty": 3817,
      "banks": 3818,
      "obeyed": 3819,
      "Egyp": 3820,
      "pictures": 3821,
      "Babette": 3822,
      "widow": 3823,
      "excellent": 3824,
      "Baghdad": 3825,
      "ifully": 3826,
      "Aladdin": 3827,
      "Listen": 3828,
      "Sim": 3829,
      "Ver": 3830,
      "Wh": 3831,
      "gru": 3832,
      "rec": 3833,
      "rese": 3834,
      "besto": 3835,
      "riches": 3836,
      "lover": 3837,
      "tear": 3838,
      "otherwise": 3839,
      "ical": 3840,
      "prosper": 3841,
      "settled": 3842,
      "flowed": 3843,
      "iously": 3844,
      "relate": 3845,
      "accus": 3846,
      "safety": 3847,
      "rolling": 3848,
      "zzled": 3849,
      "physician": 3850,
      "courtiers": 3851,
      "Ac": 3852,
      "Es": 3853,
      "Fer": 3854,
      "Klaus": 3855,
      "Shall": 3856,
      "prin": 3857,
      "snat": 3858,
      "recit": 3859,
      "thorn": 3860,
      "seed": 3861,
      "root": 3862,
      "alous": 3863,
      "hollow": 3864,
      "nearest": 3865,
      "dost": 3866,
      "quet": 3867,
      "foreign": 3868,
      "spend": 3869,
      "misfortune": 3870,
      "scrat": 3871,
      "returning": 3872,
      "prayed": 3873,
      "judge": 3874,
      "summoned": 3875,
      "En": 3876,
      "Mother": 3877,
      "Ne": 3878,
      "dent": 3879,
      "main": 3880,
      "vast": 3881,
      "wen": 3882,
      "resto": 3883,
      "reindeer": 3884,
      "west": 3885,
      "moor": 3886,
      "commen": 3887,
      "freed": 3888,
      "needle": 3889,
      "value": 3890,
      "suffici": 3891,
      "crossed": 3892,
      "acquaint": 3893,
      "guessed": 3894,
      "original": 3895,
      "STORY": 3896,
      "Cam": 3897,
      "Efre": 3898,
      "Gree": 3899,
      "Thy": 3900,
      "Wal": 3901,
      "bough": 3902,
      "faster": 3903,
      "mend": 3904,
      "oil": 3905,
      "inf": 3906,
      "palm": 3907,
      "Nothing": 3908,
      "ively": 3909,
      "claim": 3910,
      "barber": 3911,
      "flame": 3912,
      "pipe": 3913,
      "covering": 3914,
      "firmly": 3915,
      "dwelling": 3916,
      "conduct": 3917,
      "execution": 3918,
      "Helga": 3919,
      "consequence": 3920,
      "extreme": 3921,
      "White": 3922,
      "Efreet": 3923,
      "bree": 3924,
      "bite": 3925,
      "mam": 3926,
      "warri": 3927,
      "hoped": 3928,
      "pea": 3929,
      "rous": 3930,
      "conver": 3931,
      "----": 3932,
      "blessed": 3933,
      "justice": 3934,
      "slee": 3935,
      "astern": 3936,
      "moments": 3937,
      "torn": 3938,
      "keeping": 3939,
      "Christ": 3940,
      "leading": 3941,
      "fifteen": 3942,
      "robes": 3943,
      "horns": 3944,
      "important": 3945,
      "grateful": 3946,
      "Li": 3947,
      "Mu": 3948,
      "Min": 3949,
      "Pa": 3950,
      "clad": 3951,
      "dart": 3952,
      "hit": 3953,
      "sighed": 3954,
      "required": 3955,
      "ening": 3956,
      "leather": 3957,
      "string": 3958,
      "cage": 3959,
      "raise": 3960,
      "cience": 3961,
      "support": 3962,
      "drops": 3963,
      "excess": 3964,
      "frozen": 3965,
      "eleven": 3966,
      "English": 3967,
      "Or": 3968,
      "gay": 3969,
      "ouse": 3970,
      "orm": 3971,
      "kest": 3972,
      "cab": 3973,
      "rap": 3974,
      "amid": 3975,
      "absent": 3976,
      "quant": 3977,
      "shake": 3978,
      "tress": 3979,
      "naught": 3980,
      "glance": 3981,
      "parts": 3982,
      "flu": 3983,
      "flat": 3984,
      "surface": 3985,
      "onsense": 3986,
      "supposed": 3987,
      "senses": 3988,
      "boots": 3989,
      "gifts": 3990,
      "favourite": 3991,
      "agreeable": 3992,
      "descended": 3993,
      "occurred": 3994,
      "opportun": 3995,
      "simple": 3996,
      "private": 3997,
      "honest": 3998,
      "Ex": 3999,
      "Fro": 4000,
      "IS": 4001,
      "Knight": 4002,
      "Ye": 4003,
      "cles": 4004,
      "pound": 4005,
      "sledge": 4006,
      "trunk": 4007,
      "vor": 4008,
      "zy": 4009,
      "ana": 4010,
      "toad": 4011,
      "attain": 4012,
      "hiding": 4013,
      "rodu": 4014,
      "salo": 4015,
      "herds": 4016,
      "raged": 4017,
      "lightning": 4018,
      "slippers": 4019,
      "corpse": 4020,
      "calf": 4021,
      "searched": 4022,
      "candles": 4023,
      "memory": 4024,
      "probably": 4025,
      "opportunity": 4026,
      "Big": 4027,
      "Bull": 4028,
      "bble": 4029,
      "line": 4030,
      "py": 4031,
      "toise": 4032,
      "itions": 4033,
      "meats": 4034,
      "merely": 4035,
      "haw": 4036,
      "chose": 4037,
      "entrance": 4038,
      "working": 4039,
      "greed": 4040,
      "conve": 4041,
      "couldn": 4042,
      "affection": 4043,
      "rane": 4044,
      "Kings": 4045,
      "brook": 4046,
      "dern": 4047,
      "pron": 4048,
      "friendly": 4049,
      "grains": 4050,
      "gardener": 4051,
      "super": 4052,
      "deeply": 4053,
      "remarked": 4054,
      "prac": 4055,
      "apartment": 4056,
      "thirsty": 4057,
      "specta": 4058,
      "coffin": 4059,
      "procession": 4060,
      "';": 4061,
      "Black": 4062,
      "Com": 4063,
      "Des": 4064,
      "Dire": 4065,
      "Get": 4066,
      "Rab": 4067,
      "hay": 4068,
      "cellar": 4069,
      "amas": 4070,
      "ustr": 4071,
      "explain": 4072,
      "useless": 4073,
      "contr": 4074,
      "jealous": 4075,
      "frequ": 4076,
      "swan": 4077,
      "native": 4078,
      "aware": 4079,
      "accordingly": 4080,
      "period": 4081,
      "rushing": 4082,
      "Happy": 4083,
      "Old": 4084,
      "cul": 4085,
      "cool": 4086,
      "pool": 4087,
      "wha": 4088,
      "ressed": 4089,
      "itation": 4090,
      "fee": 4091,
      "lamb": 4092,
      "shown": 4093,
      "sugar": 4094,
      "exist": 4095,
      "idered": 4096,
      "compla": 4097,
      "tract": 4098,
      "plung": 4099,
      "flour": 4100,
      "bigger": 4101,
      "smaller": 4102,
      "succeeded": 4103,
      "description": 4104,
      "fanci": 4105,
      "granted": 4106,
      "learnt": 4107,
      "solemn": 4108,
      "papa": 4109,
      "brilliant": 4110,
      "00": 4111,
      "dug": 4112,
      "faint": 4113,
      "iot": 4114,
      "enance": 4115,
      "chan": 4116,
      "ality": 4117,
      "devo": 4118,
      "pets": 4119,
      "ittered": 4120,
      "pome": 4121,
      "ilor": 4122,
      "older": 4123,
      "iest": 4124,
      "afternoon": 4125,
      "mule": 4126,
      "parted": 4127,
      "chain": 4128,
      "arrival": 4129,
      "write": 4130,
      "pretti": 4131,
      "hunter": 4132,
      "soup": 4133,
      "properly": 4134,
      "groan": 4135,
      "violent": 4136,
      "affairs": 4137,
      "Paradise": 4138,
      "dirty": 4139,
      "profess": 4140,
      "demons": 4141,
      "employed": 4142,
      ");": 4143,
      "Cinder": 4144,
      "Dun": 4145,
      "Noured": 4146,
      "incl": 4147,
      "tomed": 4148,
      "seas": 4149,
      "whoever": 4150,
      "someone": 4151,
      "exp": 4152,
      "reading": 4153,
      "provis": 4154,
      "angrily": 4155,
      "grain": 4156,
      "gracious": 4157,
      "curi": 4158,
      "supp": 4159,
      "dreams": 4160,
      "wandering": 4161,
      "bbing": 4162,
      "audi": 4163,
      "cheek": 4164,
      "subjects": 4165,
      "roots": 4166,
      "plucked": 4167,
      "galloped": 4168,
      "embroidered": 4169,
      "scattered": 4170,
      "accustomed": 4171,
      "Noureddin": 4172,
      "AT": 4173,
      "Cer": 4174,
      "Fis": 4175,
      "SE": 4176,
      "date": 4177,
      "heels": 4178,
      "removed": 4179,
      "seize": 4180,
      "stif": 4181,
      "iding": 4182,
      "sore": 4183,
      "ified": 4184,
      "camel": 4185,
      "illa": 4186,
      "report": 4187,
      "sunset": 4188,
      "contri": 4189,
      "swept": 4190,
      "atherine": 4191,
      "Mosle": 4192,
      "dreamed": 4193,
      "colours": 4194,
      "calm": 4195,
      "furious": 4196,
      "circum": 4197,
      "cooked": 4198,
      "demanded": 4199,
      "Time": 4200,
      "Catherine": 4201,
      "lished": 4202,
      "mice": 4203,
      "sill": 4204,
      "ub": 4205,
      "heal": 4206,
      "height": 4207,
      "adorn": 4208,
      "soever": 4209,
      "hoping": 4210,
      "faire": 4211,
      "chick": 4212,
      "proof": 4213,
      "letters": 4214,
      "deri": 4215,
      "throughout": 4216,
      "design": 4217,
      "blin": 4218,
      "gazing": 4219,
      "tortoise": 4220,
      "parrot": 4221,
      "impati": 4222,
      "flock": 4223,
      "swans": 4224,
      "badly": 4225,
      "beaten": 4226,
      "storks": 4227,
      "dumb": 4228,
      "knock": 4229,
      "Three": 4230,
      "merchand": 4231,
      "obtained": 4232,
      "lofty": 4233,
      "character": 4234,
      "voyage": 4235,
      "Minn": 4236,
      "due": 4237,
      "eb": 4238,
      "ease": 4239,
      "page": 4240,
      "adle": 4241,
      "ility": 4242,
      "action": 4243,
      "earnest": 4244,
      "disgu": 4245,
      "zement": 4246,
      "north": 4247,
      "distur": 4248,
      "meantime": 4249,
      "stantly": 4250,
      "pointing": 4251,
      "Thank": 4252,
      "square": 4253,
      "imagined": 4254,
      "excuse": 4255,
      "swimming": 4256,
      "folded": 4257,
      "Bedr": 4258,
      "Muslims": 4259,
      "arranged": 4260,
      "humpback": 4261,
      "possibly": 4262,
      "Erin": 4263,
      "Gra": 4264,
      "Jinn": 4265,
      "Muck": 4266,
      "bone": 4267,
      "gment": 4268,
      "theless": 4269,
      "inst": 4270,
      "edition": 4271,
      "orter": 4272,
      "hook": 4273,
      "nee": 4274,
      "def": 4275,
      "camp": 4276,
      "moving": 4277,
      "lore": 4278,
      "quis": 4279,
      "sparrow": 4280,
      "shaking": 4281,
      "likewise": 4282,
      "mud": 4283,
      "prove": 4284,
      "akan": 4285,
      "join": 4286,
      "claws": 4287,
      "largest": 4288,
      "Tailor": 4289,
      "closely": 4290,
      "China": 4291,
      "thrust": 4292,
      "cradle": 4293,
      "anxiety": 4294,
      "transl": 4295,
      "conceal": 4296,
      "swiftly": 4297,
      "amazement": 4298,
      "Lady": 4299,
      "Labakan": 4300,
      "merchandise": 4301,
      "Minnikin": 4302,
      "Bir": 4303,
      "IR": 4304,
      "Jap": 4305,
      "Sire": 4306,
      "dashed": 4307,
      "fought": 4308,
      "gloo": 4309,
      "han": 4310,
      "ip": 4311,
      "ich": 4312,
      "lon": 4313,
      "mies": 4314,
      "sung": 4315,
      "intend": 4316,
      "asc": 4317,
      "arti": 4318,
      "roar": 4319,
      "sale": 4320,
      "hers": 4321,
      "mach": 4322,
      "nightingale": 4323,
      "proved": 4324,
      "useful": 4325,
      "akes": 4326,
      "dervish": 4327,
      "pride": 4328,
      "landed": 4329,
      "counted": 4330,
      "tors": 4331,
      "rabbit": 4332,
      "richly": 4333,
      "angel": 4334,
      "plainly": 4335,
      "crowns": 4336,
      "hideous": 4337,
      "officers": 4338,
      "grieved": 4339,
      "Verily": 4340,
      "saloon": 4341,
      "Bro": 4342,
      "Chi": 4343,
      "Damas": 4344,
      "bour": 4345,
      "obed": 4346,
      "tis": 4347,
      "uc": 4348,
      "ination": 4349,
      "stat": 4350,
      "tiger": 4351,
      "lap": 4352,
      "gover": 4353,
      "bodies": 4354,
      "aches": 4355,
      "medic": 4356,
      "office": 4357,
      "ishing": 4358,
      "countenance": 4359,
      "visited": 4360,
      "Maroo": 4361,
      "author": 4362,
      "mourning": 4363,
      "accepted": 4364,
      "beams": 4365,
      "conducted": 4366,
      "reflected": 4367,
      "pillow": 4368,
      "equal": 4369,
      "louder": 4370,
      "gratitude": 4371,
      "Fisher": 4372,
      "obedi": 4373,
      "Gh": 4374,
      "LL": 4375,
      "Must": 4376,
      "Sad": 4377,
      "Tur": 4378,
      "ior": 4379,
      "pour": 4380,
      "reve": 4381,
      "tone": 4382,
      "stain": 4383,
      "stared": 4384,
      "wasn": 4385,
      "uttering": 4386,
      "hermit": 4387,
      "lice": 4388,
      "tim": 4389,
      "mantle": 4390,
      "manners": 4391,
      "laughter": 4392,
      "tea": 4393,
      "wouldst": 4394,
      "headed": 4395,
      "shoot": 4396,
      "guide": 4397,
      "flowing": 4398,
      "forests": 4399,
      "mile": 4400,
      "sque": 4401,
      "lump": 4402,
      "vizier": 4403,
      "lines": 4404,
      "directions": 4405,
      "costly": 4406,
      "prisoner": 4407,
      "writing": 4408,
      "curiosity": 4409,
      "Mountain": 4410,
      "Sir": 4411,
      "pter": 4412,
      "praised": 4413,
      "ske": 4414,
      "tit": 4415,
      "oran": 4416,
      "seve": 4417,
      "cean": 4418,
      "utmost": 4419,
      "lier": 4420,
      "fetched": 4421,
      "degre": 4422,
      "pected": 4423,
      "pop": 4424,
      "rule": 4425,
      "wherever": 4426,
      "mbly": 4427,
      "hearted": 4428,
      "Therefore": 4429,
      "couch": 4430,
      "swear": 4431,
      "Arabic": 4432,
      "Everything": 4433,
      "succeed": 4434,
      "lamps": 4435,
      "match": 4436,
      "nuts": 4437,
      "perfectly": 4438,
      "completely": 4439,
      "accomplish": 4440,
      "inhabitants": 4441,
      "rejoicing": 4442,
      "audience": 4443,
      "Damascus": 4444,
      "Azee": 4445,
      "Tis": 4446,
      "Tho": 4447,
      "cred": 4448,
      "frag": 4449,
      "iy": 4450,
      "oven": 4451,
      "pier": 4452,
      "umb": 4453,
      "oura": 4454,
      "asy": 4455,
      "ays": 4456,
      "addressed": 4457,
      "marks": 4458,
      "compass": 4459,
      "missed": 4460,
      "attering": 4461,
      "strangers": 4462,
      "Because": 4463,
      "floated": 4464,
      "introdu": 4465,
      "matters": 4466,
      "accident": 4467,
      "crystal": 4468,
      "whistle": 4469,
      "driving": 4470,
      "tasted": 4471,
      "velvet": 4472,
      "Wait": 4473,
      "concealed": 4474,
      "terribly": 4475,
      "remarkable": 4476,
      "Golden": 4477,
      "Maroosi": 4478,
      "Ghanim": 4479,
      "Bes": 4480,
      "cin": 4481,
      "ckets": 4482,
      "dates": 4483,
      "ix": 4484,
      "push": 4485,
      "wers": 4486,
      "require": 4487,
      "amaz": 4488,
      "ulted": 4489,
      "conqu": 4490,
      "rushes": 4491,
      "prepare": 4492,
      "composed": 4493,
      "closet": 4494,
      "smiling": 4495,
      "draught": 4496,
      "rabbi": 4497,
      "corre": 4498,
      "zaman": 4499,
      "knights": 4500,
      "heavens": 4501,
      "Conn": 4502,
      "stuffs": 4503,
      "shoemaker": 4504,
      "peeped": 4505,
      "events": 4506,
      "Half": 4507,
      "innocent": 4508,
      "restored": 4509,
      "12": 4510,
      "CH": 4511,
      "Him": 4512,
      "Nur": 4513,
      "Sh": 4514,
      "Uras": 4515,
      "dar": 4516,
      "dagger": 4517,
      "gled": 4518,
      "lance": 4519,
      "toes": 4520,
      "llen": 4521,
      "waste": 4522,
      "willow": 4523,
      "willingly": 4524,
      "wouldn": 4525,
      "repent": 4526,
      "applied": 4527,
      "glittered": 4528,
      "shiver": 4529,
      "kettle": 4530,
      "heartily": 4531,
      "sible": 4532,
      "distin": 4533,
      "risk": 4534,
      "brightly": 4535,
      "grows": 4536,
      "dreaming": 4537,
      "cupboard": 4538,
      "Rosa": 4539,
      "council": 4540,
      "deserve": 4541,
      "goblin": 4542,
      "affli": 4543,
      "fierce": 4544,
      "Hunter": 4545,
      "embraced": 4546,
      "fancied": 4547,
      "pomegran": 4548,
      "Maroosia": 4549,
      "Dy": 4550,
      "Han": 4551,
      "Mas": 4552,
      "Mis": 4553,
      "Ser": 4554,
      "agh": 4555,
      "avo": 4556,
      "bind": 4557,
      "skill": 4558,
      "troll": 4559,
      "toward": 4560,
      "tians": 4561,
      "colt": 4562,
      "codi": 4563,
      "accompany": 4564,
      "ruin": 4565,
      "gives": 4566,
      "prefer": 4567,
      "hence": 4568,
      "ables": 4569,
      "brass": 4570,
      "lights": 4571,
      "akened": 4572,
      "beautifully": 4573,
      "buff": 4574,
      "maids": 4575,
      "breaking": 4576,
      "Most": 4577,
      "chosen": 4578,
      "morsel": 4579,
      "Jew": 4580,
      "praise": 4581,
      "eleph": 4582,
      "thieves": 4583,
      "Badr": 4584,
      "protection": 4585,
      "pigeon": 4586,
      "pigeons": 4587,
      "blosso": 4588,
      "sprinkled": 4589,
      "Walter": 4590,
      "plunged": 4591,
      "Ano": 4592,
      "Sure": 4593,
      "Stop": 4594,
      "Was": 4595,
      "dull": 4596,
      "fitted": 4597,
      "gli": 4598,
      "oint": 4599,
      "tid": 4600,
      "vul": 4601,
      "ys": 4602,
      "ince": 4603,
      "attempt": 4604,
      "hag": 4605,
      "beha": 4606,
      "beings": 4607,
      "oob": 4608,
      "comed": 4609,
      "expla": 4610,
      "steward": 4611,
      "remind": 4612,
      "flute": 4613,
      "fishing": 4614,
      "enemies": 4615,
      "flag": 4616,
      "bury": 4617,
      "moonlight": 4618,
      "coloured": 4619,
      "advant": 4620,
      "secretly": 4621,
      "turban": 4622,
      "liter": 4623,
      "wounded": 4624,
      "Gulees": 4625,
      "exceeding": 4626,
      "balcon": 4627,
      "eagerly": 4628,
      "Baba": 4629,
      "Budd": 4630,
      "alighted": 4631,
      "rapid": 4632,
      "Another": 4633,
      "Guleesh": 4634,
      "Eastern": 4635,
      "Ko": 4636,
      "Mur": 4637,
      "nonsense": 4638,
      "stag": 4639,
      "chased": 4640,
      "forms": 4641,
      "mot": 4642,
      "pots": 4643,
      "antly": 4644,
      "fared": 4645,
      "camels": 4646,
      "conj": 4647,
      "anywhere": 4648,
      "household": 4649,
      "gray": 4650,
      "speci": 4651,
      "girdle": 4652,
      "trap": 4653,
      "appears": 4654,
      "witness": 4655,
      "kissing": 4656,
      "contents": 4657,
      "glory": 4658,
      "traveller": 4659,
      "Accord": 4660,
      "contrary": 4661,
      "Certain": 4662,
      "buffalo": 4663,
      ";'": 4664,
      "Again": 4665,
      "During": 4666,
      "Fool": 4667,
      "Lion": 4668,
      "Sou": 4669,
      "eleg": 4670,
      "fil": 4671,
      "ocean": 4672,
      "swo": 4673,
      "invisible": 4674,
      "restore": 4675,
      "iture": 4676,
      "soci": 4677,
      "limbs": 4678,
      "coast": 4679,
      "deb": 4680,
      "boast": 4681,
      "usted": 4682,
      "convin": 4683,
      "arts": 4684,
      "pretend": 4685,
      "anya": 4686,
      "comfor": 4687,
      "cio": 4688,
      "clapped": 4689,
      "towns": 4690,
      "Tales": 4691,
      "swing": 4692,
      "tribe": 4693,
      "delivered": 4694,
      "picious": 4695,
      "crocodi": 4696,
      "ounce": 4697,
      "divided": 4698,
      "ilgrimage": 4699,
      "CE": 4700,
      "Cap": 4701,
      "Fox": 4702,
      "Gri": 4703,
      "Ring": 4704,
      "aunt": 4705,
      "dign": 4706,
      "swore": 4707,
      "hions": 4708,
      "becoming": 4709,
      "iring": 4710,
      "negro": 4711,
      "dee": 4712,
      "geon": 4713,
      "moss": 4714,
      "abund": 4715,
      "ource": 4716,
      "boiled": 4717,
      "takes": 4718,
      "ako": 4719,
      "shoo": 4720,
      "loveliness": 4721,
      "inscri": 4722,
      "mistake": 4723,
      "skins": 4724,
      "scene": 4725,
      "floating": 4726,
      "relations": 4727,
      "interrup": 4728,
      "showing": 4729,
      "basin": 4730,
      "wander": 4731,
      "fatig": 4732,
      "happens": 4733,
      "enjoyed": 4734,
      "linen": 4735,
      "assembled": 4736,
      "Wolf": 4737,
      "glorious": 4738,
      "depths": 4739,
      "liberty": 4740,
      "Certainly": 4741,
      "Ass": 4742,
      "Each": 4743,
      "Im": 4744,
      "pace": 4745,
      "ued": 4746,
      "vow": 4747,
      "vil": 4748,
      "woo": 4749,
      "retain": 4750,
      "bewild": 4751,
      "cease": 4752,
      "sumed": 4753,
      "etc": 4754,
      "somehow": 4755,
      "autumn": 4756,
      "silken": 4757,
      "venture": 4758,
      "Moti": 4759,
      "roads": 4760,
      "mourn": 4761,
      "commonly": 4762,
      "slender": 4763,
      "candle": 4764,
      "meadows": 4765,
      "diamond": 4766,
      "marvelled": 4767,
      "occupied": 4768,
      "persuaded": 4769,
      "Brother": 4770,
      "LD": 4771,
      "Vanya": 4772,
      "zel": 4773,
      "tha": 4774,
      "ert": 4775,
      "ora": 4776,
      "vexed": 4777,
      "adding": 4778,
      "holes": 4779,
      "dem": 4780,
      "rare": 4781,
      "unfortunate": 4782,
      "police": 4783,
      "exchange": 4784,
      "didst": 4785,
      "goodness": 4786,
      "brings": 4787,
      "propo": 4788,
      "procla": 4789,
      "lightly": 4790,
      "beds": 4791,
      "sweep": 4792,
      "barrel": 4793,
      "seventh": 4794,
      "pitcher": 4795,
      "whisper": 4796,
      "refu": 4797,
      "penny": 4798,
      "contented": 4799,
      "cities": 4800,
      "destroyed": 4801,
      "furniture": 4802,
      "entreated": 4803,
      "ceremony": 4804,
      "clerk": 4805,
      "Alexander": 4806,
      "Greek": 4807,
      "stiff": 4808,
      "Those": 4809,
      "Dwarf": 4810,
      "Fal": 4811,
      "Fare": 4812,
      "Jin": 4813,
      "Jam": 4814,
      "Koran": 4815,
      "Lai": 4816,
      "Miss": 4817,
      "RO": 4818,
      "Story": 4819,
      "Vir": 4820,
      "cong": 4821,
      "east": 4822,
      "nin": 4823,
      "asks": 4824,
      "aral": 4825,
      "hip": 4826,
      "sacri": 4827,
      "ammad": 4828,
      "aga": 4829,
      "--'": 4830,
      "endure": 4831,
      "stock": 4832,
      "rude": 4833,
      "exha": 4834,
      "ists": 4835,
      "laden": 4836,
      "mense": 4837,
      "carpet": 4838,
      "naked": 4839,
      "glan": 4840,
      "misery": 4841,
      "jewel": 4842,
      "cursed": 4843,
      "ceiving": 4844,
      "fearing": 4845,
      "finally": 4846,
      "needed": 4847,
      "aired": 4848,
      "describe": 4849,
      "proudly": 4850,
      "violently": 4851,
      "club": 4852,
      "greeted": 4853,
      "reigned": 4854,
      "deeds": 4855,
      "marvell": 4856,
      "Madam": 4857,
      "measure": 4858,
      "Camaral": 4859,
      "circumst": 4860,
      "pomegranate": 4861,
      "advantage": 4862,
      "Camaralzaman": 4863,
      "Car": 4864,
      "Cal": 4865,
      "Grand": 4866,
      "Hu": 4867,
      "aver": 4868,
      "grin": 4869,
      "pine": 4870,
      "uli": 4871,
      "ually": 4872,
      "enced": 4873,
      "hal": 4874,
      "sain": 4875,
      "oot": 4876,
      "term": 4877,
      "astro": 4878,
      "giants": 4879,
      "immense": 4880,
      "stret": 4881,
      "remains": 4882,
      "prize": 4883,
      "journeyed": 4884,
      "stern": 4885,
      "temper": 4886,
      "excepting": 4887,
      "centre": 4888,
      "judgment": 4889,
      "twink": 4890,
      "ducks": 4891,
      "leapt": 4892,
      "circle": 4893,
      "neighbouring": 4894,
      "drum": 4895,
      "blossom": 4896,
      "Love": 4897,
      "intention": 4898,
      "Esben": 4899,
      "Besides": 4900,
      "Dar": 4901,
      "Hind": 4902,
      "Mill": 4903,
      "Mary": 4904,
      "Tow": 4905,
      "ame": 4906,
      "fy": 4907,
      "gown": 4908,
      "nik": 4909,
      "swords": 4910,
      "thic": 4911,
      "lla": 4912,
      "ceiling": 4913,
      "forgive": 4914,
      "forbidden": 4915,
      "whip": 4916,
      "sug": 4917,
      "hedge": 4918,
      "earn": 4919,
      "handful": 4920,
      "permitted": 4921,
      "monarch": 4922,
      "sunrise": 4923,
      "thousands": 4924,
      "swung": 4925,
      "situ": 4926,
      "fellows": 4927,
      "attended": 4928,
      "staircase": 4929,
      "allows": 4930,
      "fortunes": 4931,
      "Holy": 4932,
      "borne": 4933,
      "stooped": 4934,
      "exceedingly": 4935,
      "planted": 4936,
      "shrieked": 4937,
      "Highness": 4938,
      "Christmas": 4939,
      "quantity": 4940,
      "Laili": 4941,
      "sacrif": 4942,
      "Brah": 4943,
      "Ill": 4944,
      "Ku": 4945,
      "Lam": 4946,
      "aked": 4947,
      "intell": 4948,
      "token": 4949,
      "saith": 4950,
      "chor": 4951,
      "address": 4952,
      "hospit": 4953,
      "deck": 4954,
      "unch": 4955,
      "hated": 4956,
      "childhood": 4957,
      "waved": 4958,
      "serious": 4959,
      "shold": 4960,
      "plants": 4961,
      "lessly": 4962,
      "paused": 4963,
      "threshold": 4964,
      "Dog": 4965,
      "ridge": 4966,
      "tricks": 4967,
      "cushions": 4968,
      "fifth": 4969,
      "dangerous": 4970,
      "Persia": 4971,
      "oxen": 4972,
      "examined": 4973,
      "Nightingale": 4974,
      "learning": 4975,
      "Halvor": 4976,
      "particularly": 4977,
      "Leave": 4978,
      "sufficient": 4979,
      "'\"": 4980,
      "Eli": 4981,
      "Gep": 4982,
      "LI": 4983,
      "Mag": 4984,
      "Mac": 4985,
      "Sister": 4986,
      "Yaga": 4987,
      "bay": 4988,
      "bark": 4989,
      "lat": 4990,
      "rings": 4991,
      "sits": 4992,
      "heir": 4993,
      "theat": 4994,
      "revenge": 4995,
      "arse": 4996,
      "beer": 4997,
      "bears": 4998,
      "idu": 4999,
      "uni": 5000,
      "works": 5001,
      "stopping": 5002,
      "stomach": 5003,
      "backwards": 5004,
      "ignor": 5005,
      "placing": 5006,
      "proceed": 5007,
      "carved": 5008,
      "mermaid": 5009,
      "betro": 5010,
      "betray": 5011,
      "silently": 5012,
      "paws": 5013,
      "hundreds": 5014,
      "heav": 5015,
      "Maid": 5016,
      "travels": 5017,
      "deeper": 5018,
      "petto": 5019,
      "furnished": 5020,
      "dollars": 5021,
      "European": 5022,
      "distinguished": 5023,
      "extremely": 5024,
      "Command": 5025,
      "provisions": 5026,
      "Japan": 5027,
      "amazed": 5028,
      "balcony": 5029,
      "Farewell": 5030,
      "suggest": 5031,
      "Geppetto": 5032,
      "Bag": 5033,
      "Seven": 5034,
      "_On": 5035,
      "borrow": 5036,
      "elo": 5037,
      "tling": 5038,
      "wl": 5039,
      "heem": 5040,
      "sees": 5041,
      "hog": 5042,
      "hore": 5043,
      "lions": 5044,
      "tip": 5045,
      "worst": 5046,
      "daylight": 5047,
      ".'\"": 5048,
      "canst": 5049,
      "fulfilled": 5050,
      "repaired": 5051,
      "plate": 5052,
      "joyfully": 5053,
      "Moham": 5054,
      "Moammad": 5055,
      "bows": 5056,
      "Though": 5057,
      "reality": 5058,
      "difference": 5059,
      "sails": 5060,
      "fighting": 5061,
      "bench": 5062,
      "committed": 5063,
      "portra": 5064,
      "Hunchback": 5065,
      "North": 5066,
      "travellers": 5067,
      "pigs": 5068,
      "Ibraheem": 5069,
      "warned": 5070,
      "George": 5071,
      "Simon": 5072,
      "snatched": 5073,
      "Paul": 5074,
      "whale": 5075,
      "adorned": 5076,
      "governor": 5077,
      "marvellous": 5078,
      "!)": 5079,
      "10": 5080,
      "AD": 5081,
      "Fo": 5082,
      "Lasse": 5083,
      "aim": 5084,
      "awhile": 5085,
      "fid": 5086,
      "gion": 5087,
      "ival": 5088,
      "kers": 5089,
      "tun": 5090,
      "tuck": 5091,
      "reck": 5092,
      "oul": 5093,
      "ende": 5094,
      "ids": 5095,
      "roaring": 5096,
      "chin": 5097,
      "herbs": 5098,
      "hoof": 5099,
      "foster": 5100,
      "losing": 5101,
      "aren": 5102,
      "contract": 5103,
      "ladder": 5104,
      "lasted": 5105,
      "steep": 5106,
      "tramp": 5107,
      "tracted": 5108,
      "plu": 5109,
      "humble": 5110,
      "wallow": 5111,
      "jelly": 5112,
      "engaged": 5113,
      "hesit": 5114,
      "frightful": 5115,
      "numer": 5116,
      "hara": 5117,
      "repeat": 5118,
      "sailors": 5119,
      "gentlemen": 5120,
      "wearing": 5121,
      "enchantment": 5122,
      "wrath": 5123,
      "experience": 5124,
      "Like": 5125,
      "silly": 5126,
      "medicine": 5127,
      "Azeez": 5128,
      "ointment": 5129,
      "Abu": 5130,
      "Bl": 5131,
      "Owen": 5132,
      "VEN": 5133,
      "aus": 5134,
      "aught": 5135,
      "dun": 5136,
      "ih": 5137,
      "nap": 5138,
      "tted": 5139,
      "inqu": 5140,
      "repro": 5141,
      "seal": 5142,
      "hael": 5143,
      "beli": 5144,
      "lde": 5145,
      "chat": 5146,
      "alu": 5147,
      "hopes": 5148,
      "liar": 5149,
      "liver": 5150,
      "lius": 5151,
      "ria": 5152,
      "rial": 5153,
      "neat": 5154,
      "tiv": 5155,
      "mankind": 5156,
      "lazy": 5157,
      "decre": 5158,
      "mole": 5159,
      "peak": 5160,
      "foal": 5161,
      "somebody": 5162,
      "wherein": 5163,
      "anybody": 5164,
      "perple": 5165,
      "appoint": 5166,
      "marched": 5167,
      "clothing": 5168,
      "underground": 5169,
      "appare": 5170,
      "gaily": 5171,
      "killing": 5172,
      "friendship": 5173,
      "distress": 5174,
      "arrig": 5175,
      "crime": 5176,
      "implored": 5177,
      "welcomed": 5178,
      "pile": 5179,
      "hanged": 5180,
      "Jews": 5181,
      "turtle": 5182,
      "leaped": 5183,
      "falcon": 5184,
      "graceful": 5185,
      "apartments": 5186,
      "descend": 5187,
      "fiery": 5188,
      "terrified": 5189,
      "boldly": 5190,
      "concerning": 5191,
      "Thief": 5192,
      "pursued": 5193,
      "executioner": 5194,
      "darted": 5195,
      "Dunya": 5196,
      "Fisherman": 5197,
      "comforted": 5198,
      "proposal": 5199,
      "heavily": 5200,
      "Aj": 5201,
      "Fan": 5202,
      "Ir": 5203,
      "Te": 5204,
      "Whe": 5205,
      "grou": 5206,
      "jac": 5207,
      "recover": 5208,
      "stit": 5209,
      "ldom": 5210,
      "roared": 5211,
      "charms": 5212,
      "hop": 5213,
      "ripe": 5214,
      "thern": 5215,
      "necks": 5216,
      "mode": 5217,
      "modern": 5218,
      "ifies": 5219,
      "loves": 5220,
      "abroad": 5221,
      "sparrows": 5222,
      "turns": 5223,
      "?\";": 5224,
      "satin": 5225,
      "blade": 5226,
      "winds": 5227,
      "shield": 5228,
      "tones": 5229,
      "dearly": 5230,
      "feelings": 5231,
      "necklace": 5232,
      "charged": 5233,
      "chariot": 5234,
      "fury": 5235,
      "south": 5236,
      "bounded": 5237,
      "Sometimes": 5238,
      "departure": 5239,
      "poetry": 5240,
      "punished": 5241,
      "Walee": 5242,
      "ogress": 5243,
      "expecting": 5244,
      "About": 5245,
      "Lawn": 5246,
      "Minister": 5247,
      "gloomy": 5248,
      "Dyarrig": 5249,
      "Ad": 5250,
      "Alee": 5251,
      "Frid": 5252,
      "Hast": 5253,
      "Mon": 5254,
      "Wor": 5255,
      "dise": 5256,
      "dim": 5257,
      "echo": 5258,
      "iment": 5259,
      "pink": 5260,
      "anno": 5261,
      "asp": 5262,
      "isn": 5263,
      "sty": 5264,
      "owls": 5265,
      "idle": 5266,
      "weap": 5267,
      "admitted": 5268,
      "alas": 5269,
      "coal": 5270,
      "agach": 5271,
      "boats": 5272,
      "exal": 5273,
      "backs": 5274,
      "begging": 5275,
      "gets": 5276,
      "hearth": 5277,
      "coup": 5278,
      "youths": 5279,
      "impris": 5280,
      "smallest": 5281,
      "curse": 5282,
      "pipes": 5283,
      "nud": 5284,
      "warning": 5285,
      "tub": 5286,
      "crowded": 5287,
      "Russ": 5288,
      "knee": 5289,
      "figures": 5290,
      "benef": 5291,
      "attached": 5292,
      "Shahraz": 5293,
      "Rasalu": 5294,
      "Pivi": 5295,
      "accomplished": 5296,
      "godmother": 5297,
      "lodging": 5298,
      "festiv": 5299,
      "extraordinary": 5300,
      "provided": 5301,
      "Gruagach": 5302,
      "rescue": 5303,
      "recited": 5304,
      "conjure": 5305,
      "Illustr": 5306,
      "theatre": 5307,
      "Maiden": 5308,
      "Irish": 5309,
      "Shahrazad": 5310,
      "Jim": 5311,
      "Land": 5312,
      "Nu": 5313,
      "Nay": 5314,
      "Oon": 5315,
      "Omar": 5316,
      "Open": 5317,
      "Porter": 5318,
      "TA": 5319,
      "Ter": 5320,
      "Tal": 5321,
      "WI": 5322,
      "bam": 5323,
      "mound": 5324,
      "tune": 5325,
      "vase": 5326,
      "yn": 5327,
      "zes": 5328,
      "tops": 5329,
      "secure": 5330,
      "seldom": 5331,
      "withered": 5332,
      "sages": 5333,
      "cocks": 5334,
      "nail": 5335,
      "sunk": 5336,
      "ventured": 5337,
      "Momot": 5338,
      "rivers": 5339,
      "Make": 5340,
      "grim": 5341,
      "signifies": 5342,
      "sweetmeats": 5343,
      "jumping": 5344,
      "luckily": 5345,
      "splendour": 5346,
      "result": 5347,
      "clearly": 5348,
      "squee": 5349,
      "suffering": 5350,
      "duckling": 5351,
      "tightly": 5352,
      "separated": 5353,
      "thorough": 5354,
      "cheerful": 5355,
      "wonders": 5356,
      "produced": 5357,
      "boughs": 5358,
      "breeze": 5359,
      "prettiest": 5360,
      "Halfman": 5361,
      "Accordingly": 5362,
      "Miller": 5363,
      "Commander": 5364,
      "Friday": 5365,
      "Oonagh": 5366,
      "Momotaro": 5367,
      "38": 5368,
      "Afri": 5369,
      "Abra": 5370,
      "Karen": 5371,
      "Mir": 5372,
      "Nie": 5373,
      "Sind": 5374,
      "Swallow": 5375,
      "eel": 5376,
      "ila": 5377,
      "ips": 5378,
      "kk": 5379,
      "science": 5380,
      "tes": 5381,
      "ret": 5382,
      "retired": 5383,
      "asing": 5384,
      "eness": 5385,
      "envy": 5386,
      "envious": 5387,
      "ites": 5388,
      "hired": 5389,
      "belt": 5390,
      "saint": 5391,
      "hima": 5392,
      "alarm": 5393,
      "richest": 5394,
      "copy": 5395,
      "fected": 5396,
      "depri": 5397,
      "deceived": 5398,
      "cavern": 5399,
      "locks": 5400,
      "loaded": 5401,
      "posing": 5402,
      "fame": 5403,
      "boar": 5404,
      "actu": 5405,
      "preced": 5406,
      "mured": 5407,
      "Princesses": 5408,
      "achar": 5409,
      "founded": 5410,
      "repair": 5411,
      "waving": 5412,
      "spear": 5413,
      "burial": 5414,
      "parting": 5415,
      "mischief": 5416,
      "flood": 5417,
      "skir": 5418,
      "remaining": 5419,
      "wishing": 5420,
      "struction": 5421,
      "soundly": 5422,
      "keys": 5423,
      "barn": 5424,
      "generous": 5425,
      "burden": 5426,
      "slip": 5427,
      "shade": 5428,
      "seizing": 5429,
      "Stan": 5430,
      "conscious": 5431,
      "wreath": 5432,
      "transformed": 5433,
      "example": 5434,
      "saucer": 5435,
      "stroke": 5436,
      "leaning": 5437,
      "ruled": 5438,
      "pronounced": 5439,
      "practice": 5440,
      "frequently": 5441,
      "Bird": 5442,
      "Urashima": 5443,
      "blossoms": 5444,
      "explained": 5445,
      "bamboo": 5446,
      "Niels": 5447,
      "AM": 5448,
      "Day": 5449,
      "Ear": 5450,
      "Fire": 5451,
      "Mic": 5452,
      "Ogre": 5453,
      "Son": 5454,
      "Sold": 5455,
      "cill": 5456,
      "cask": 5457,
      "dow": 5458,
      "gan": 5459,
      "inj": 5460,
      "inquire": 5461,
      "refresh": 5462,
      "onnik": 5463,
      "sevent": 5464,
      "wiped": 5465,
      "ford": 5466,
      "ribb": 5467,
      "nets": 5468,
      "ram": 5469,
      "pect": 5470,
      "owned": 5471,
      "ults": 5472,
      "nowhere": 5473,
      "text": 5474,
      "spared": 5475,
      "gilius": 5476,
      "aves": 5477,
      "perfor": 5478,
      "grad": 5479,
      "desp": 5480,
      "bling": 5481,
      "steel": 5482,
      "harder": 5483,
      "joyed": 5484,
      "miss": 5485,
      "trum": 5486,
      "scent": 5487,
      "powder": 5488,
      "ized": 5489,
      "trial": 5490,
      "startled": 5491,
      "boxes": 5492,
      "crows": 5493,
      "Peronnik": 5494,
      "consult": 5495,
      "pearl": 5496,
      "excite": 5497,
      "interest": 5498,
      "wondrous": 5499,
      "preparations": 5500,
      "assistance": 5501,
      "cabin": 5502,
      "hawk": 5503,
      "Gracio": 5504,
      "Misery": 5505,
      "Virgilius": 5506,
      "numerous": 5507,
      "Abraham": 5508,
      "Michael": 5509,
      "Graciosa": 5510,
      "16": 5511,
      "Den": 5512,
      "HO": 5513,
      "Jes": 5514,
      "Khan": 5515,
      "Pu": 5516,
      "bill": 5517,
      "bbed": 5518,
      "brows": 5519,
      "dit": 5520,
      "dain": 5521,
      "fling": 5522,
      "gla": 5523,
      "mation": 5524,
      "pages": 5525,
      "tan": 5526,
      "wits": 5527,
      "heath": 5528,
      "inher": 5529,
      "relie": 5530,
      "toe": 5531,
      "leton": 5532,
      "haven": 5533,
      "stall": 5534,
      "idently": 5535,
      "adm": 5536,
      "irdre": 5537,
      "rig": 5538,
      "moan": 5539,
      "domin": 5540,
      "ache": 5541,
      "spur": 5542,
      "spake": 5543,
      "exer": 5544,
      "mbrance": 5545,
      "hens": 5546,
      "apha": 5547,
      "estee": 5548,
      "horri": 5549,
      "serving": 5550,
      "diver": 5551,
      "rench": 5552,
      "torment": 5553,
      "missing": 5554,
      "visitor": 5555,
      "filling": 5556,
      "ridden": 5557,
      "finish": 5558,
      "sweetly": 5559,
      "troubles": 5560,
      "Any": 5561,
      "chests": 5562,
      "Rome": 5563,
      "Deirdre": 5564,
      "bags": 5565,
      "yards": 5566,
      "belongs": 5567,
      "Quick": 5568,
      "murmured": 5569,
      "stables": 5570,
      "rewarded": 5571,
      "mortar": 5572,
      "cooking": 5573,
      "pillar": 5574,
      "rades": 5575,
      "troops": 5576,
      "whirl": 5577,
      "ornaments": 5578,
      "Mustapha": 5579,
      "elegant": 5580,
      "Away": 5581,
      "Bre": 5582,
      "Dav": 5583,
      "ED": 5584,
      "Lu": 5585,
      "Life": 5586,
      "Wel": 5587,
      "Water": 5588,
      "awa": 5589,
      "awaited": 5590,
      "bul": 5591,
      "nic": 5592,
      "ost": 5593,
      "pious": 5594,
      "sie": 5595,
      "sex": 5596,
      "beh": 5597,
      "rosy": 5598,
      "ric": 5599,
      "notes": 5600,
      "colored": 5601,
      "mance": 5602,
      "desol": 5603,
      "derer": 5604,
      "rags": 5605,
      "dome": 5606,
      "expressed": 5607,
      "broker": 5608,
      "ices": 5609,
      "merrily": 5610,
      "letting": 5611,
      "goldsmith": 5612,
      "understanding": 5613,
      "birch": 5614,
      "cutter": 5615,
      "needs": 5616,
      "Martha": 5617,
      "student": 5618,
      "stripped": 5619,
      "cracked": 5620,
      "colors": 5621,
      "confidence": 5622,
      "iii": 5623,
      "scream": 5624,
      "funeral": 5625,
      "blame": 5626,
      "bloom": 5627,
      "lords": 5628,
      "threatened": 5629,
      "curtains": 5630,
      "mamma": 5631,
      "herdsman": 5632,
      "derived": 5633,
      "popular": 5634,
      "Surely": 5635,
      "convinced": 5636,
      "bewildered": 5637,
      "twinkling": 5638,
      "exalted": 5639,
      ":\"": 5640,
      "Bass": 5641,
      "Coun": 5642,
      "Fred": 5643,
      "French": 5644,
      "Hence": 5645,
      "Nile": 5646,
      "Put": 5647,
      "Saint": 5648,
      "Tre": 5649,
      "Tiny": 5650,
      "ives": 5651,
      "mmed": 5652,
      "mult": 5653,
      "rade": 5654,
      "rats": 5655,
      "slo": 5656,
      "sire": 5657,
      "snu": 5658,
      "uced": 5659,
      "educ": 5660,
      "sacks": 5661,
      "verily": 5662,
      "liqu": 5663,
      "pecu": 5664,
      "amused": 5665,
      "lovers": 5666,
      "woe": 5667,
      "spin": 5668,
      "gious": 5669,
      "nightfall": 5670,
      "begun": 5671,
      "fulfil": 5672,
      "fty": 5673,
      "horrid": 5674,
      "ortune": 5675,
      "bucket": 5676,
      "trace": 5677,
      "vier": 5678,
      "hasten": 5679,
      "imper": 5680,
      "purchase": 5681,
      "garment": 5682,
      "puzzled": 5683,
      "Elsa": 5684,
      "calam": 5685,
      "collection": 5686,
      "murder": 5687,
      "wretch": 5688,
      "Ireland": 5689,
      "excited": 5690,
      "butterfly": 5691,
      "messengers": 5692,
      "equally": 5693,
      "eunuchs": 5694,
      "iliar": 5695,
      "queer": 5696,
      "bestowed": 5697,
      "warrior": 5698,
      "Cinderlad": 5699,
      "ourable": 5700,
      "Brahman": 5701,
      "Bagdad": 5702,
      "peculiar": 5703,
      "Er": 5704,
      "Pilgrimage": 5705,
      "Scha": 5706,
      "Since": 5707,
      "Witch": 5708,
      "pul": 5709,
      "plot": 5710,
      "sul": 5711,
      "tue": 5712,
      "represent": 5713,
      "outer": 5714,
      "isa": 5715,
      "enorm": 5716,
      "archer": 5717,
      "season": 5718,
      "sav": 5719,
      "weal": 5720,
      "sooth": 5721,
      "allu": 5722,
      "butcher": 5723,
      "gee": 5724,
      "caut": 5725,
      "unlucky": 5726,
      "loving": 5727,
      "boiling": 5728,
      "acy": 5729,
      "spun": 5730,
      "wherefore": 5731,
      "turnips": 5732,
      "compe": 5733,
      "comrades": 5734,
      "compli": 5735,
      "slew": 5736,
      "gling": 5737,
      "fluttered": 5738,
      "tray": 5739,
      "exclaim": 5740,
      "hunts": 5741,
      "badger": 5742,
      "pitch": 5743,
      "pains": 5744,
      "blowing": 5745,
      "Suley": 5746,
      "lawful": 5747,
      "drift": 5748,
      "mirac": 5749,
      "confusion": 5750,
      "Jem": 5751,
      "murderer": 5752,
      "twisted": 5753,
      "uki": 5754,
      "Said": 5755,
      "religion": 5756,
      "virtue": 5757,
      "experienced": 5758,
      "politely": 5759,
      "Ferko": 5760,
      "New": 5761,
      "fragrance": 5762,
      "exhausted": 5763,
      "circumstances": 5764,
      "Suleyman": 5765,
      "Adam": 5766,
      "Ca": 5767,
      "Eyes": 5768,
      "Fortune": 5769,
      "Luck": 5770,
      "Mor": 5771,
      "Mid": 5772,
      "Mut": 5773,
      "Phara": 5774,
      "Rap": 5775,
      "Sil": 5776,
      "Vi": 5777,
      "clay": 5778,
      "etern": 5779,
      "gust": 5780,
      "jung": 5781,
      "lute": 5782,
      "lina": 5783,
      "oked": 5784,
      "vine": 5785,
      "xic": 5786,
      "yield": 5787,
      "tories": 5788,
      "aries": 5789,
      "stout": 5790,
      "befall": 5791,
      "cell": 5792,
      "nel": 5793,
      "neath": 5794,
      "lame": 5795,
      "decor": 5796,
      "cared": 5797,
      "unted": 5798,
      "amusing": 5799,
      "somewhere": 5800,
      "marsh": 5801,
      "proposed": 5802,
      "rightly": 5803,
      "doorway": 5804,
      "Note": 5805,
      "stretch": 5806,
      "cia": 5807,
      "wont": 5808,
      "stem": 5809,
      "train": 5810,
      "lesson": 5811,
      "husbands": 5812,
      "powers": 5813,
      "fearful": 5814,
      "risen": 5815,
      "familiar": 5816,
      "triump": 5817,
      "pump": 5818,
      "mixed": 5819,
      "cups": 5820,
      "touching": 5821,
      "tuous": 5822,
      "musk": 5823,
      "Island": 5824,
      "destiny": 5825,
      "mbelina": 5826,
      "century": 5827,
      "trusted": 5828,
      "spells": 5829,
      "Tiidu": 5830,
      "regarded": 5831,
      "blooming": 5832,
      "Muslim": 5833,
      "information": 5834,
      "Thumbelina": 5835,
      "scolded": 5836,
      "Ibrahim": 5837,
      "Egyptian": 5838,
      "fluence": 5839,
      "chickens": 5840,
      "disguise": 5841,
      "stretching": 5842,
      "Ajib": 5843,
      "Bassor": 5844,
      "snuff": 5845,
      "Eag": 5846,
      "Mako": 5847,
      "Please": 5848,
      "Und": 5849,
      "mily": 5850,
      "swell": 5851,
      "ani": 5852,
      "release": 5853,
      "llah": 5854,
      "metal": 5855,
      "melted": 5856,
      "fork": 5857,
      "mansion": 5858,
      "hate": 5859,
      "pockets": 5860,
      "yourselves": 5861,
      "ruined": 5862,
      "brush": 5863,
      "chess": 5864,
      "disgrace": 5865,
      "nails": 5866,
      "track": 5867,
      "class": 5868,
      "minds": 5869,
      "acknow": 5870,
      "continue": 5871,
      "Covan": 5872,
      "halls": 5873,
      "evidently": 5874,
      "tails": 5875,
      "nesses": 5876,
      "pulling": 5877,
      "olk": 5878,
      "knocking": 5879,
      "Barber": 5880,
      "quarters": 5881,
      "questioned": 5882,
      "punish": 5883,
      "occasions": 5884,
      "sparent": 5885,
      "regular": 5886,
      "sparkled": 5887,
      "entreat": 5888,
      "existence": 5889,
      "inclined": 5890,
      "statue": 5891,
      "title": 5892,
      "tidings": 5893,
      "abundance": 5894,
      "perplexed": 5895,
      "geese": 5896,
      "Pharaoh": 5897,
      "Makoma": 5898,
      "Dra": 5899,
      "Down": 5900,
      "ES": 5901,
      "Fak": 5902,
      "GH": 5903,
      "Hold": 5904,
      "Light": 5905,
      "Sy": 5906,
      "Sar": 5907,
      "avan": 5908,
      "bon": 5909,
      "bis": 5910,
      "bac": 5911,
      "crane": 5912,
      "equi": 5913,
      "jar": 5914,
      "mass": 5915,
      "nigh": 5916,
      "ois": 5917,
      "pir": 5918,
      "ual": 5919,
      "ying": 5920,
      "regre": 5921,
      "attemp": 5922,
      "issu": 5923,
      "adop": 5924,
      "aland": 5925,
      "negle": 5926,
      "dew": 5927,
      "raiment": 5928,
      "qual": 5929,
      "bolt": 5930,
      "conclu": 5931,
      "illness": 5932,
      "exped": 5933,
      "marvel": 5934,
      "readily": 5935,
      "prophe": 5936,
      "happier": 5937,
      "tells": 5938,
      "shops": 5939,
      "wanting": 5940,
      "plough": 5941,
      "observe": 5942,
      "skull": 5943,
      "sciss": 5944,
      "Beast": 5945,
      "highly": 5946,
      "Queens": 5947,
      "sink": 5948,
      "banquet": 5949,
      "summit": 5950,
      "eyeh": 5951,
      "remembrance": 5952,
      "signed": 5953,
      "numbers": 5954,
      "sixth": 5955,
      "custo": 5956,
      "bridal": 5957,
      "embar": 5958,
      "streams": 5959,
      "sorce": 5960,
      "staring": 5961,
      "cheese": 5962,
      "Snowdrop": 5963,
      "patient": 5964,
      "greyhound": 5965,
      "greeting": 5966,
      "polished": 5967,
      "sausage": 5968,
      "sparkling": 5969,
      "lantern": 5970,
      "transparent": 5971,
      "perfume": 5972,
      "Frog": 5973,
      "contrived": 5974,
      "Soldier": 5975,
      "enormous": 5976,
      "jungle": 5977,
      "scissors": 5978,
      "17": 5979,
      "Both": 5980,
      "Knud": 5981,
      "Off": 5982,
      "Say": 5983,
      "Tha": 5984,
      "Vic": 5985,
      "brow": 5986,
      "doo": 5987,
      "ditch": 5988,
      "ees": 5989,
      "gged": 5990,
      "gorge": 5991,
      "knot": 5992,
      "mmer": 5993,
      "odd": 5994,
      "anna": 5995,
      "thumb": 5996,
      "ism": 5997,
      "ory": 5998,
      "melt": 5999,
      "member": 6000,
      "weet": 6001,
      "alarmed": 6002,
      "destruction": 6003,
      "union": 6004,
      "lomon": 6005,
      "shud": 6006,
      "tem": 6007,
      "intoxic": 6008,
      "expen": 6009,
      "handle": 6010,
      "rowed": 6011,
      "Solomon": 6012,
      "provin": 6013,
      "armour": 6014,
      "whit": 6015,
      "cleared": 6016,
      "follows": 6017,
      "pursuit": 6018,
      "becomes": 6019,
      "finer": 6020,
      "split": 6021,
      "mild": 6022,
      "tumbled": 6023,
      "shortly": 6024,
      "awakened": 6025,
      "picking": 6026,
      "guarded": 6027,
      "double": 6028,
      "reaching": 6029,
      "Barah": 6030,
      "collect": 6031,
      "hammer": 6032,
      "profit": 6033,
      "stalk": 6034,
      "washing": 6035,
      "officer": 6036,
      "sprung": 6037,
      "Among": 6038,
      "Keep": 6039,
      "prosperity": 6040,
      "quisite": 6041,
      "compassion": 6042,
      "refuge": 6043,
      "Eliza": 6044,
      "auspicious": 6045,
      "gradually": 6046,
      "Viking": 6047,
      ",)": 6048,
      "15": 6049,
      ";--": 6050,
      "HI": 6051,
      "Hall": 6052,
      "Jer": 6053,
      "Kav": 6054,
      "Lane": 6055,
      "Stal": 6056,
      "Wat": 6057,
      "West": 6058,
      "gand": 6059,
      "image": 6060,
      "jam": 6061,
      "mast": 6062,
      "nar": 6063,
      "pant": 6064,
      "plight": 6065,
      "vag": 6066,
      "wages": 6067,
      "xx": 6068,
      "oush": 6069,
      "ari": 6070,
      "melo": 6071,
      "station": 6072,
      "bees": 6073,
      "beach": 6074,
      "beware": 6075,
      "altar": 6076,
      "kel": 6077,
      "myster": 6078,
      "upwards": 6079,
      "urged": 6080,
      "lawn": 6081,
      "unic": 6082,
      "dozen": 6083,
      "ulous": 6084,
      "thence": 6085,
      "preserve": 6086,
      "perched": 6087,
      "begins": 6088,
      "mothers": 6089,
      "carri": 6090,
      "carpets": 6091,
      "caravan": 6092,
      "imit": 6093,
      "monst": 6094,
      "waiver": 6095,
      "displayed": 6096,
      "underneath": 6097,
      "crew": 6098,
      "thinks": 6099,
      "compar": 6100,
      "oses": 6101,
      "plates": 6102,
      "ringing": 6103,
      "chains": 6104,
      "paw": 6105,
      "packed": 6106,
      "wonderfully": 6107,
      "witched": 6108,
      "dreamt": 6109,
      "frogs": 6110,
      "coverlet": 6111,
      "striking": 6112,
      "changing": 6113,
      "feasting": 6114,
      "commands": 6115,
      "repeating": 6116,
      "madam": 6117,
      "balls": 6118,
      "knelt": 6119,
      "sending": 6120,
      "Star": 6121,
      "dinars": 6122,
      "satisfy": 6123,
      "thankful": 6124,
      "devoured": 6125,
      "amusement": 6126,
      "scales": 6127,
      "stool": 6128,
      "feeding": 6129,
      "expression": 6130,
      "Moreover": 6131,
      "princi": 6132,
      "Rabba": 6133,
      "society": 6134,
      "glanced": 6135,
      "appointment": 6136,
      "desolate": 6137,
      "Kavin": 6138,
      "oushka": 6139,
      "24": 6140,
      "Ikk": 6141,
      "Kat": 6142,
      "Mat": 6143,
      "ky": 6144,
      "lend": 6145,
      "olives": 6146,
      "pup": 6147,
      "sers": 6148,
      "tide": 6149,
      "vowed": 6150,
      "errand": 6151,
      "bel": 6152,
      "ldron": 6153,
      "ading": 6154,
      "hopped": 6155,
      "unzel": 6156,
      "foam": 6157,
      "loaf": 6158,
      "pole": 6159,
      "constantly": 6160,
      "gia": 6161,
      "Princes": 6162,
      "grasped": 6163,
      "calls": 6164,
      "tremend": 6165,
      "waxed": 6166,
      "dismounted": 6167,
      "effort": 6168,
      "clung": 6169,
      "masters": 6170,
      "misfortunes": 6171,
      "stron": 6172,
      "jured": 6173,
      "Dost": 6174,
      "berry": 6175,
      "curled": 6176,
      "current": 6177,
      "lively": 6178,
      "mouthful": 6179,
      "uneasy": 6180,
      "Almighty": 6181,
      "study": 6182,
      "cliff": 6183,
      "valu": 6184,
      "Without": 6185,
      "Anth": 6186,
      "advised": 6187,
      "Through": 6188,
      "iko": 6189,
      "sailing": 6190,
      "sailor": 6191,
      "Art": 6192,
      "consulted": 6193,
      "satisfa": 6194,
      "wounds": 6195,
      "rasp": 6196,
      "zzling": 6197,
      "Gudu": 6198,
      "naturally": 6199,
      "increase": 6200,
      "festival": 6201,
      "sweethe": 6202,
      "devoted": 6203,
      "avoid": 6204,
      "inscription": 6205,
      "sacrifice": 6206,
      "portrait": 6207,
      "endeav": 6208,
      "Blue": 6209,
      "Illustration": 6210,
      "Early": 6211,
      "Jesper": 6212,
      "Rapunzel": 6213,
      "Ikkor": 6214,
      "Aje": 6215,
      "Bal": 6216,
      "Emily": 6217,
      "Gr": 6218,
      "HE": 6219,
      "Had": 6220,
      "Kint": 6221,
      "Mer": 6222,
      "Ole": 6223,
      "Pri": 6224,
      "Pig": 6225,
      "Roc": 6226,
      "Sit": 6227,
      "TO": 6228,
      "Viz": 6229,
      "awaiting": 6230,
      "emer": 6231,
      "fowl": 6232,
      "fowls": 6233,
      "jal": 6234,
      "kins": 6235,
      "pred": 6236,
      "atak": 6237,
      "herb": 6238,
      "ayed": 6239,
      "admit": 6240,
      "lip": 6241,
      "coin": 6242,
      "upstairs": 6243,
      "amber": 6244,
      "folly": 6245,
      "log": 6246,
      "therein": 6247,
      "worm": 6248,
      "mper": 6249,
      "acious": 6250,
      "bathe": 6251,
      "overjoyed": 6252,
      "shapes": 6253,
      "preva": 6254,
      "eyel": 6255,
      "angled": 6256,
      "disappear": 6257,
      "joke": 6258,
      "pless": 6259,
      "palaces": 6260,
      "steam": 6261,
      "appet": 6262,
      "glasses": 6263,
      "Ask": 6264,
      "inny": 6265,
      "spoon": 6266,
      "vio": 6267,
      "vied": 6268,
      "catching": 6269,
      "flask": 6270,
      "knap": 6271,
      "impro": 6272,
      "quicker": 6273,
      "hunchback": 6274,
      "TER": 6275,
      "puma": 6276,
      "sixteen": 6277,
      "points": 6278,
      "counter": 6279,
      "damp": 6280,
      "belonging": 6281,
      "poets": 6282,
      "gleamed": 6283,
      "suitable": 6284,
      "examine": 6285,
      "stirred": 6286,
      "heroes": 6287,
      "interesting": 6288,
      "arrange": 6289,
      "glowing": 6290,
      "produce": 6291,
      "preparing": 6292,
      "Keo": 6293,
      "Naois": 6294,
      "Direach": 6295,
      "Moslems": 6296,
      "fairest": 6297,
      "Buddha": 6298,
      "crocodile": 6299,
      "Immediately": 6300,
      "Jamie": 6301,
      "hoofs": 6302,
      "Africa": 6303,
      "Sindbad": 6304,
      "actually": 6305,
      "triumph": 6306,
      "Anthony": 6307,
      "Ajeeb": 6308,
      "Kintaro": 6309,
      "Dapple": 6310,
      "Hor": 6311,
      "Iwan": 6312,
      "Jatak": 6313,
      "Kil": 6314,
      "eman": 6315,
      "lind": 6316,
      "pou": 6317,
      "slu": 6318,
      "sworn": 6319,
      "reas": 6320,
      "resid": 6321,
      "resumed": 6322,
      "isy": 6323,
      "engra": 6324,
      "alms": 6325,
      "rick": 6326,
      "lains": 6327,
      "gods": 6328,
      "goats": 6329,
      "pepper": 6330,
      "ambas": 6331,
      "ets": 6332,
      "conne": 6333,
      "mpion": 6334,
      "explan": 6335,
      "downstairs": 6336,
      "moreover": 6337,
      "perfection": 6338,
      "apron": 6339,
      "march": 6340,
      "knowest": 6341,
      "laying": 6342,
      "comrade": 6343,
      "complain": 6344,
      "streamed": 6345,
      "loveliest": 6346,
      "obje": 6347,
      "flashed": 6348,
      "paradise": 6349,
      "cub": 6350,
      "staying": 6351,
      "clothed": 6352,
      "eyebrows": 6353,
      "unex": 6354,
      "tablecloth": 6355,
      "pike": 6356,
      "craft": 6357,
      "porridge": 6358,
      "sticking": 6359,
      "choly": 6360,
      "awful": 6361,
      "searching": 6362,
      "embrace": 6363,
      "tents": 6364,
      "captive": 6365,
      "tongues": 6366,
      "dawned": 6367,
      "possessions": 6368,
      "nobles": 6369,
      "devour": 6370,
      "sauce": 6371,
      "Dublin": 6372,
      "protect": 6373,
      "relief": 6374,
      "religious": 6375,
      "prevented": 6376,
      "wares": 6377,
      "characters": 6378,
      "transport": 6379,
      "Shifty": 6380,
      "confessed": 6381,
      "doctors": 6382,
      "treatment": 6383,
      "creeping": 6384,
      "breathed": 6385,
      "invented": 6386,
      "Egyptians": 6387,
      "attained": 6388,
      "pouring": 6389,
      "degree": 6390,
      "rapidly": 6391,
      "fatigue": 6392,
      "Towards": 6393,
      "Talking": 6394,
      "thoroughly": 6395,
      "dowry": 6396,
      "David": 6397,
      "calamity": 6398,
      "Bassorah": 6399,
      "valuable": 6400,
      "appetite": 6401,
      "knapsack": 6402,
      "Dapplegrim": 6403,
      "Iwanich": 6404,
      "ambassad": 6405,
      "AS": 6406,
      "Dest": 6407,
      "France": 6408,
      "Gi": 6409,
      "Gang": 6410,
      "None": 6411,
      "Scar": 6412,
      "Sche": 6413,
      "Too": 6414,
      "Wali": 6415,
      "jaw": 6416,
      "poo": 6417,
      "tough": 6418,
      "hem": 6419,
      "remed": 6420,
      "record": 6421,
      "melan": 6422,
      "hams": 6423,
      "bewitched": 6424,
      "sacred": 6425,
      "chattering": 6426,
      "verty": 6427,
      "coins": 6428,
      "fever": 6429,
      "wheat": 6430,
      "mod": 6431,
      "pebble": 6432,
      "uloob": 6433,
      "poverty": 6434,
      "condem": 6435,
      "prey": 6436,
      "preserved": 6437,
      "offence": 6438,
      "brand": 6439,
      "prover": 6440,
      "settle": 6441,
      "dipped": 6442,
      "smart": 6443,
      "mistaken": 6444,
      "distra": 6445,
      "distressed": 6446,
      "strings": 6447,
      "barley": 6448,
      "purple": 6449,
      "Mau": 6450,
      "trousers": 6451,
      "Cogia": 6452,
      "rises": 6453,
      "swine": 6454,
      "meanwhile": 6455,
      "frost": 6456,
      "doesn": 6457,
      "portress": 6458,
      "spreading": 6459,
      "cases": 6460,
      "eagles": 6461,
      "contains": 6462,
      "shouting": 6463,
      "murdered": 6464,
      "sharply": 6465,
      "twain": 6466,
      "screaming": 6467,
      "smelt": 6468,
      "neighbourhood": 6469,
      "devil": 6470,
      "magnificence": 6471,
      "vessels": 6472,
      "importance": 6473,
      "instrument": 6474,
      "England": 6475,
      "...": 6476,
      "entertainment": 6477,
      "struggled": 6478,
      "Danish": 6479,
      "Joanna": 6480,
      "amidst": 6481,
      "Sadko": 6482,
      "Hansel": 6483,
      "debt": 6484,
      "shooting": 6485,
      "interrupted": 6486,
      "tucked": 6487,
      "excitement": 6488,
      "Eagle": 6489,
      "sweetheart": 6490,
      "unexpected": 6491,
      "melancholy": 6492,
      "'-": 6493,
      "20": 6494,
      "Abi": 6495,
      "Fen": 6496,
      "Five": 6497,
      "Hi": 6498,
      "Last": 6499,
      "Neither": 6500,
      "Pat": 6501,
      "Simp": 6502,
      "Tu": 6503,
      "Tep": 6504,
      "_P": 6505,
      "cards": 6506,
      "hany": 6507,
      "kane": 6508,
      "lately": 6509,
      "mut": 6510,
      "piled": 6511,
      "wrest": 6512,
      "intim": 6513,
      "influence": 6514,
      "tossed": 6515,
      "offee": 6516,
      "stately": 6517,
      "beck": 6518,
      "beet": 6519,
      "ropes": 6520,
      "forts": 6521,
      "wheels": 6522,
      "amount": 6523,
      "itty": 6524,
      "indust": 6525,
      "thereupon": 6526,
      "tap": 6527,
      "whatsoever": 6528,
      "affected": 6529,
      "extended": 6530,
      "gild": 6531,
      "dazzled": 6532,
      "nevertheless": 6533,
      "homes": 6534,
      "dismay": 6535,
      "buck": 6536,
      "bushel": 6537,
      "cip": 6538,
      "plans": 6539,
      "efforts": 6540,
      "glided": 6541,
      "pail": 6542,
      "keeps": 6543,
      "pudden": 6544,
      "Pinkel": 6545,
      "resist": 6546,
      "harp": 6547,
      "confined": 6548,
      "deserved": 6549,
      "Which": 6550,
      "comfortably": 6551,
      "pleasantly": 6552,
      "enjoyment": 6553,
      "invitation": 6554,
      "twist": 6555,
      "Seeing": 6556,
      "gallery": 6557,
      "considerable": 6558,
      "attacked": 6559,
      "peeping": 6560,
      "duties": 6561,
      "drums": 6562,
      "Chamber": 6563,
      "Chapter": 6564,
      "render": 6565,
      "reciting": 6566,
      "disturb": 6567,
      "authority": 6568,
      "thicket": 6569,
      "Thakane": 6570,
      "Tephany": 6571,
      "19": 6572,
      "BE": 6573,
      "Ber": 6574,
      "Bur": 6575,
      "Bey": 6576,
      "Cu": 6577,
      "Cri": 6578,
      "Has": 6579,
      "Jose": 6580,
      "Kaland": 6581,
      "Lap": 6582,
      "Raven": 6583,
      "_S": 6584,
      "aee": 6585,
      "cleft": 6586,
      "ctive": 6587,
      "dic": 6588,
      "gno": 6589,
      "iance": 6590,
      "oy": 6591,
      "obe": 6592,
      "phi": 6593,
      "rhy": 6594,
      "snee": 6595,
      "wool": 6596,
      "represented": 6597,
      "towers": 6598,
      "inging": 6599,
      "stin": 6600,
      "stage": 6601,
      "saving": 6602,
      "weh": 6603,
      "lia": 6604,
      "coarse": 6605,
      "raising": 6606,
      "pel": 6607,
      "forever": 6608,
      "tame": 6609,
      "acted": 6610,
      "shaved": 6611,
      "inese": 6612,
      "sentence": 6613,
      "repast": 6614,
      "treacher": 6615,
      "wailing": 6616,
      "blown": 6617,
      "mounting": 6618,
      "falls": 6619,
      "pack": 6620,
      "witnesses": 6621,
      "brightness": 6622,
      "continually": 6623,
      "elsewhere": 6624,
      "mired": 6625,
      "starting": 6626,
      "Chinese": 6627,
      "bottles": 6628,
      "generosity": 6629,
      "Whereupon": 6630,
      "penet": 6631,
      "Roman": 6632,
      "casket": 6633,
      "climbing": 6634,
      "Percin": 6635,
      "Donkey": 6636,
      "Stay": 6637,
      "cotton": 6638,
      "lux": 6639,
      "twilight": 6640,
      "enjoying": 6641,
      "quarre": 6642,
      "quarrel": 6643,
      "Green": 6644,
      "violence": 6645,
      "susp": 6646,
      "Nights": 6647,
      "successful": 6648,
      "istening": 6649,
      "commenced": 6650,
      "conveyed": 6651,
      "healing": 6652,
      "elephant": 6653,
      "vulgar": 6654,
      "betrothed": 6655,
      "seventy": 6656,
      "Trembling": 6657,
      "Under": 6658,
      "Fakir": 6659,
      "gorgeous": 6660,
      "tremendous": 6661,
      "Percinet": 6662,
      "Ball": 6663,
      "Bear": 6664,
      "Could": 6665,
      "Flo": 6666,
      "Fear": 6667,
      "Fres": 6668,
      "Ida": 6669,
      "PR": 6670,
      "Port": 6671,
      "Sat": 6672,
      "Wick": 6673,
      "Zu": 6674,
      "ator": 6675,
      "crou": 6676,
      "coffee": 6677,
      "gallows": 6678,
      "ient": 6679,
      "lust": 6680,
      "mate": 6681,
      "nay": 6682,
      "ral": 6683,
      "ashore": 6684,
      "attracted": 6685,
      "isen": 6686,
      "enraged": 6687,
      "itary": 6688,
      "lea": 6689,
      "mem": 6690,
      "sewing": 6691,
      "haired": 6692,
      "sah": 6693,
      "sato": 6694,
      "admired": 6695,
      "whel": 6696,
      "deaf": 6697,
      "deceased": 6698,
      "govern": 6699,
      "aband": 6700,
      "quack": 6701,
      "bog": 6702,
      "teacher": 6703,
      "oldest": 6704,
      "bage": 6705,
      "permit": 6706,
      "howled": 6707,
      "Were": 6708,
      "monu": 6709,
      "disgust": 6710,
      "blan": 6711,
      "inned": 6712,
      "miners": 6713,
      "helpless": 6714,
      "careless": 6715,
      "fairly": 6716,
      "sleepy": 6717,
      "flown": 6718,
      "fourteen": 6719,
      "mouths": 6720,
      "corners": 6721,
      "directed": 6722,
      "whistled": 6723,
      "cowboy": 6724,
      "German": 6725,
      "wisest": 6726,
      "respectable": 6727,
      "scarlet": 6728,
      "declare": 6729,
      "selling": 6730,
      "phew": 6731,
      "mortals": 6732,
      "heaps": 6733,
      "stuffed": 6734,
      "patiently": 6735,
      "surrounding": 6736,
      "Nevertheless": 6737,
      "birthday": 6738,
      "chairs": 6739,
      "occurs": 6740,
      "stroked": 6741,
      "rustling": 6742,
      "inhabited": 6743,
      "kicked": 6744,
      "scolding": 6745,
      "convey": 6746,
      "earnestly": 6747,
      "Jinni": 6748,
      "artific": 6749,
      "severe": 6750,
      "dignity": 6751,
      "Kufa": 6752,
      "intellig": 6753,
      "deprived": 6754,
      "exerc": 6755,
      "wealthy": 6756,
      "explanation": 6757,
      "Destiny": 6758,
      "Scarcely": 6759,
      "Amin": 6760,
      "Devil": 6761,
      "Eunuch": 6762,
      "Four": 6763,
      "Hur": 6764,
      "Hare": 6765,
      "Over": 6766,
      "Pray": 6767,
      "ape": 6768,
      "bru": 6769,
      "ela": 6770,
      "faded": 6771,
      "pis": 6772,
      "pru": 6773,
      "trough": 6774,
      "ydd": 6775,
      "anti": 6776,
      "anchor": 6777,
      "recomp": 6778,
      "llo": 6779,
      "hail": 6780,
      "ception": 6781,
      "sove": 6782,
      "fey": 6783,
      "mock": 6784,
      "modest": 6785,
      "mosque": 6786,
      "ssing": 6787,
      "hatche": 6788,
      "indign": 6789,
      "shines": 6790,
      "daybreak": 6791,
      "range": 6792,
      "overtook": 6793,
      "marrying": 6794,
      "eyed": 6795,
      "procure": 6796,
      "disappointed": 6797,
      "desper": 6798,
      "sunlight": 6799,
      "sunbeam": 6800,
      "torrent": 6801,
      "flash": 6802,
      "distri": 6803,
      "kisses": 6804,
      "sinking": 6805,
      "ression": 6806,
      "shows": 6807,
      "signal": 6808,
      "sofa": 6809,
      "direct": 6810,
      "freely": 6811,
      "hangs": 6812,
      "natured": 6813,
      "slipper": 6814,
      "splendor": 6815,
      "color": 6816,
      "Roy": 6817,
      "temple": 6818,
      "harsh": 6819,
      "happening": 6820,
      "watchman": 6821,
      "mingled": 6822,
      "ivory": 6823,
      "bravely": 6824,
      "heaped": 6825,
      "postle": 6826,
      "leaned": 6827,
      "Thumb": 6828,
      "gathering": 6829,
      "admiration": 6830,
      "breathe": 6831,
      "poisoned": 6832,
      "bestow": 6833,
      "naughty": 6834,
      "solemnly": 6835,
      "fairer": 6836,
      "disturbed": 6837,
      "Serpent": 6838,
      "Captain": 6839,
      "situation": 6840,
      "decreed": 6841,
      "group": 6842,
      "performance": 6843,
      "admire": 6844,
      "Muta": 6845,
      "strongest": 6846,
      "Rocket": 6847,
      "Maurice": 6848,
      "suspended": 6849,
      "Fressah": 6850,
      "AP": 6851,
      "Bet": 6852,
      "Fion": 6853,
      "Flight": 6854,
      "Folk": 6855,
      "Gop": 6856,
      "Gran": 6857,
      "Hard": 6858,
      "Hjal": 6859,
      "Ib": 6860,
      "Might": 6861,
      "Pr": 6862,
      "YOU": 6863,
      "aman": 6864,
      "bending": 6865,
      "fainted": 6866,
      "sened": 6867,
      "umin": 6868,
      "vna": 6869,
      "wled": 6870,
      "inches": 6871,
      "thri": 6872,
      "tobac": 6873,
      "artic": 6874,
      "iting": 6875,
      "hap": 6876,
      "stan": 6877,
      "forwards": 6878,
      "ads": 6879,
      "keen": 6880,
      "tick": 6881,
      "upright": 6882,
      "doms": 6883,
      "indic": 6884,
      "shrin": 6885,
      "boil": 6886,
      "ette": 6887,
      "contemp": 6888,
      "accursed": 6889,
      "loosened": 6890,
      "rubbing": 6891,
      "baked": 6892,
      "dazzling": 6893,
      "marked": 6894,
      "fathers": 6895,
      "prostr": 6896,
      "immortal": 6897,
      "aken": 6898,
      "Instead": 6899,
      "Instantly": 6900,
      "wailed": 6901,
      "mostly": 6902,
      "blu": 6903,
      "Nobody": 6904,
      "compared": 6905,
      "plat": 6906,
      "shilling": 6907,
      "vile": 6908,
      "scor": 6909,
      "scorn": 6910,
      "scented": 6911,
      "persisted": 6912,
      "ridic": 6913,
      "Comp": 6914,
      "azara": 6915,
      "gladness": 6916,
      "blower": 6917,
      "Wherefore": 6918,
      "bbled": 6919,
      "rocky": 6920,
      "awydd": 6921,
      "paying": 6922,
      "squire": 6923,
      "faithfully": 6924,
      "kneel": 6925,
      "crushed": 6926,
      "Manawydd": 6927,
      "Conall": 6928,
      "panther": 6929,
      "anxiously": 6930,
      "fiercely": 6931,
      "swallows": 6932,
      "shells": 6933,
      "separation": 6934,
      "yawn": 6935,
      "persuade": 6936,
      "Farmer": 6937,
      "struggle": 6938,
      "ruler": 6939,
      "sweetest": 6940,
      "warriors": 6941,
      "excessive": 6942,
      "Frost": 6943,
      "pounds": 6944,
      "Moslem": 6945,
      "obedient": 6946,
      "introduced": 6947,
      "halter": 6948,
      "borrowed": 6949,
      "Terence": 6950,
      "World": 6951,
      "annoyed": 6952,
      "cillor": 6953,
      "dominions": 6954,
      "exclaiming": 6955,
      "concluded": 6956,
      "expedition": 6957,
      "principal": 6958,
      "Gangazara": 6959,
      "condemned": 6960,
      "Fionn": 6961,
      "Gopani": 6962,
      "Hjalmar": 6963,
      "Ibn": 6964,
      "Prof": 6965,
      "tobacco": 6966,
      "Manawyddan": 6967,
      "Eat": 6968,
      "Fate": 6969,
      "Ha": 6970,
      "HER": 6971,
      "Ka": 6972,
      "Lat": 6973,
      "Mount": 6974,
      "OO": 6975,
      "TT": 6976,
      "Till": 6977,
      "Wilt": 6978,
      "dh": 6979,
      "dus": 6980,
      "kir": 6981,
      "nal": 6982,
      "tinder": 6983,
      "remove": 6984,
      "receiving": 6985,
      "assure": 6986,
      "orange": 6987,
      "stab": 6988,
      "hir": 6989,
      "ider": 6990,
      "chu": 6991,
      "weed": 6992,
      "welf": 6993,
      "lime": 6994,
      "dearest": 6995,
      "loaves": 6996,
      "kingdoms": 6997,
      "ulc": 6998,
      "tapest": 6999,
      "bathed": 7000,
      "cometh": 7001,
      "overheard": 7002,
      "overtake": 7003,
      "thoughtful": 7004,
      "newsp": 7005,
      "carp": 7006,
      "ltry": 7007,
      "tremble": 7008,
      "display": 7009,
      "dding": 7010,
      "ddess": 7011,
      "civil": 7012,
      "ahr": 7013,
      "traces": 7014,
      "guil": 7015,
      "games": 7016,
      "clasped": 7017,
      "hymn": 7018,
      "joyful": 7019,
      "visits": 7020,
      "witches": 7021,
      "implore": 7022,
      "purchased": 7023,
      "hairs": 7024,
      "footsteps": 7025,
      "believing": 7026,
      "strongly": 7027,
      "flakes": 7028,
      "stors": 7029,
      "dragging": 7030,
      "angels": 7031,
      "sensible": 7032,
      "column": 7033,
      "handsomest": 7034,
      "wiser": 7035,
      "springing": 7036,
      "crust": 7037,
      "crush": 7038,
      "avenge": 7039,
      "divor": 7040,
      "gleaming": 7041,
      "sickness": 7042,
      "dirhams": 7043,
      "blessings": 7044,
      "snakes": 7045,
      "regions": 7046,
      "mares": 7047,
      "valleys": 7048,
      "Evening": 7049,
      "frame": 7050,
      "Finland": 7051,
      "slightest": 7052,
      "distinguish": 7053,
      "vengeance": 7054,
      "acquaintance": 7055,
      "greedy": 7056,
      "profession": 7057,
      "Turk": 7058,
      "distinctly": 7059,
      "behaved": 7060,
      "behavi": 7061,
      "literature": 7062,
      "proclamation": 7063,
      "ignorant": 7064,
      "Mohammed": 7065,
      "mysterious": 7066,
      "recompense": 7067,
      "hatchet": 7068,
      "\")": 7069,
      ".(": 7070,
      "23": 7071,
      "25": 7072,
      "Apostle": 7073,
      "Beng": 7074,
      "Eme": 7075,
      "Ice": 7076,
      "Kok": 7077,
      "Luk": 7078,
      "Other": 7079,
      "Sent": 7080,
      "VE": 7081,
      "bast": 7082,
      "bang": 7083,
      "cort": 7084,
      "dang": 7085,
      "gor": 7086,
      "oon": 7087,
      "thel": 7088,
      "thrice": 7089,
      "ases": 7090,
      "isman": 7091,
      "arin": 7092,
      "arise": 7093,
      "arks": 7094,
      "lect": 7095,
      "haught": 7096,
      "bethought": 7097,
      "owing": 7098,
      "ades": 7099,
      "soo": 7100,
      "sobbed": 7101,
      "withstanding": 7102,
      "escort": 7103,
      "allels": 7104,
      "richer": 7105,
      "fears": 7106,
      "terms": 7107,
      "rail": 7108,
      "uncovered": 7109,
      "doth": 7110,
      "doings": 7111,
      "ament": 7112,
      "illumin": 7113,
      "icy": 7114,
      "earned": 7115,
      "offering": 7116,
      "Its": 7117,
      "reader": 7118,
      "firmed": 7119,
      "Ingi": 7120,
      "disposition": 7121,
      "disagreeable": 7122,
      "created": 7123,
      "Noah": 7124,
      "complet": 7125,
      "dili": 7126,
      "dived": 7127,
      "eats": 7128,
      "stepping": 7129,
      "plump": 7130,
      "miser": 7131,
      "scri": 7132,
      "talisman": 7133,
      "barking": 7134,
      "barked": 7135,
      "mandarin": 7136,
      "relation": 7137,
      "brain": 7138,
      "speaks": 7139,
      "tables": 7140,
      "tribut": 7141,
      "accused": 7142,
      "easier": 7143,
      "bowing": 7144,
      "alike": 7145,
      "cords": 7146,
      "laws": 7147,
      "squir": 7148,
      "attendant": 7149,
      "Barme": 7150,
      "reeds": 7151,
      "Ivano": 7152,
      "rubies": 7153,
      "pract": 7154,
      "suspected": 7155,
      "attack": 7156,
      "announced": 7157,
      "pillars": 7158,
      "victory": 7159,
      "eighty": 7160,
      "concern": 7161,
      "shirts": 7162,
      "tenderly": 7163,
      "employ": 7164,
      "motionless": 7165,
      "fainting": 7166,
      "tradition": 7167,
      "prosperous": 7168,
      "scratched": 7169,
      "sleeves": 7170,
      "supported": 7171,
      "instance": 7172,
      "translation": 7173,
      "translated": 7174,
      "ascend": 7175,
      "obedience": 7176,
      "severely": 7177,
      "pierced": 7178,
      "Rosald": 7179,
      "glimp": 7180,
      "inquir": 7181,
      "disease": 7182,
      "weapons": 7183,
      "imprisoned": 7184,
      "sexton": 7185,
      "Sarah": 7186,
      "Stalo": 7187,
      "satisfaction": 7188,
      "remedy": 7189,
      "proverb": 7190,
      "Cricket": 7191,
      "artificial": 7192,
      "platform": 7193,
      "guilty": 7194,
      "Bengal": 7195,
      "Dad": 7196,
      "Edit": 7197,
      "Gilla": 7198,
      "Hou": 7199,
      "Isle": 7200,
      "Moses": 7201,
      "Near": 7202,
      "OM": 7203,
      "Round": 7204,
      "Temp": 7205,
      "blast": 7206,
      "drun": 7207,
      "daring": 7208,
      "ica": 7209,
      "mater": 7210,
      "muttered": 7211,
      "pave": 7212,
      "sive": 7213,
      "source": 7214,
      "ena": 7215,
      "sew": 7216,
      "hire": 7217,
      "bes": 7218,
      "befell": 7219,
      "ida": 7220,
      "forgiven": 7221,
      "version": 7222,
      "nephew": 7223,
      "coats": 7224,
      "mane": 7225,
      "abl": 7226,
      ".\"--": 7227,
      "pomp": 7228,
      "antine": 7229,
      "confection": 7230,
      "tavern": 7231,
      "spon": 7232,
      "baker": 7233,
      "previous": 7234,
      "closer": 7235,
      "homewards": 7236,
      "teller": 7237,
      "mayest": 7238,
      "landlord": 7239,
      "Nowas": 7240,
      "insisted": 7241,
      "holds": 7242,
      "chained": 7243,
      "surd": 7244,
      "arrier": 7245,
      "genii": 7246,
      "vision": 7247,
      "izi": 7248,
      "hunters": 7249,
      "shower": 7250,
      "brighter": 7251,
      "wildly": 7252,
      "tomorrow": 7253,
      "duke": 7254,
      "churchyard": 7255,
      "sorrowfully": 7256,
      "pasture": 7257,
      "boot": 7258,
      "Rua": 7259,
      "chamberlain": 7260,
      "leads": 7261,
      "crooked": 7262,
      "ragged": 7263,
      "roofs": 7264,
      "services": 7265,
      "islands": 7266,
      "conscience": 7267,
      "shadows": 7268,
      "grove": 7269,
      "symp": 7270,
      "judged": 7271,
      "judges": 7272,
      "formerly": 7273,
      "cleaned": 7274,
      "Sunrise": 7275,
      "robbed": 7276,
      "counselor": 7277,
      "necessity": 7278,
      "announce": 7279,
      "snare": 7280,
      "attentively": 7281,
      "instruments": 7282,
      "stealing": 7283,
      "simply": 7284,
      "cheerfully": 7285,
      "fragrant": 7286,
      "roasted": 7287,
      "188": 7288,
      "coachman": 7289,
      "infli": 7290,
      "sleeve": 7291,
      "stained": 7292,
      "degrees": 7293,
      "shivering": 7294,
      "Rosalie": 7295,
      "reminded": 7296,
      "eloqu": 7297,
      "reckon": 7298,
      "province": 7299,
      "eyelids": 7300,
      "Portug": 7301,
      "Book": 7302,
      "Bals": 7303,
      "EVEN": 7304,
      "Oie": 7305,
      "Rose": 7306,
      "Ste": 7307,
      "Turn": 7308,
      "UN": 7309,
      "Ven": 7310,
      "cers": 7311,
      "fence": 7312,
      "gad": 7313,
      "nation": 7314,
      "rout": 7315,
      "tter": 7316,
      "uries": 7317,
      "wrought": 7318,
      "inch": 7319,
      "rew": 7320,
      "onade": 7321,
      "oft": 7322,
      "behave": 7323,
      "vex": 7324,
      "cob": 7325,
      "ference": 7326,
      "decked": 7327,
      "cau": 7328,
      "doves": 7329,
      "foals": 7330,
      "hats": 7331,
      "loch": 7332,
      "absol": 7333,
      "absurd": 7334,
      "polit": 7335,
      "quo": 7336,
      "sump": 7337,
      "suitor": 7338,
      "ille": 7339,
      "endowed": 7340,
      "extend": 7341,
      "expi": 7342,
      "shared": 7343,
      "assili": 7344,
      "broom": 7345,
      "impo": 7346,
      "shores": 7347,
      "horseback": 7348,
      "finds": 7349,
      "faronade": 7350,
      "kindled": 7351,
      "classes": 7352,
      "runs": 7353,
      "helmet": 7354,
      "scen": 7355,
      "grandson": 7356,
      "crier": 7357,
      "heavier": 7358,
      "barrow": 7359,
      "emptied": 7360,
      "strait": 7361,
      "Arabia": 7362,
      "Tale": 7363,
      "rider": 7364,
      "banished": 7365,
      "brace": 7366,
      "frighten": 7367,
      "flake": 7368,
      "evous": 7369,
      "signify": 7370,
      "warmed": 7371,
      "honoured": 7372,
      "strip": 7373,
      "desires": 7374,
      "treasury": 7375,
      "harbour": 7376,
      "lifting": 7377,
      "Demon": 7378,
      "deserted": 7379,
      "scarce": 7380,
      "Jewish": 7381,
      "decide": 7382,
      "citiz": 7383,
      "Grethel": 7384,
      "snail": 7385,
      "blinded": 7386,
      "reflection": 7387,
      "Uncle": 7388,
      "difficulties": 7389,
      "vault": 7390,
      "cateress": 7391,
      "aloes": 7392,
      "whirled": 7393,
      "provide": 7394,
      "Truth": 7395,
      "scratch": 7396,
      "freedom": 7397,
      "conversing": 7398,
      "impatient": 7399,
      "ascended": 7400,
      "Connachar": 7401,
      "swoon": 7402,
      "Marya": 7403,
      "Lamp": 7404,
      "hesitated": 7405,
      "belief": 7406,
      "tivated": 7407,
      "Fanfaronade": 7408,
      "Russian": 7409,
      "acknowled": 7410,
      "slumber": 7411,
      "Simpleton": 7412,
      "Amina": 7413,
      "articles": 7414,
      "TTLE": 7415,
      "Temple": 7416,
      "Balsora": 7417,
      "',": 7418,
      "13": 7419,
      "Dru": 7420,
      "Fati": 7421,
      "Flower": 7422,
      "Hide": 7423,
      "Kai": 7424,
      "Lake": 7425,
      "Lisa": 7426,
      "Mouse": 7427,
      "Ni": 7428,
      "RA": 7429,
      "Sup": 7430,
      "Spr": 7431,
      "Vassili": 7432,
      "Wis": 7433,
      "Yama": 7434,
      "await": 7435,
      "base": 7436,
      "brink": 7437,
      "cis": 7438,
      "card": 7439,
      "ec": 7440,
      "eve": 7441,
      "eous": 7442,
      "glove": 7443,
      "jer": 7444,
      "jug": 7445,
      "ogra": 7446,
      "pence": 7447,
      "pony": 7448,
      "rors": 7449,
      "ture": 7450,
      "resh": 7451,
      "reception": 7452,
      "ouy": 7453,
      "asping": 7454,
      "attired": 7455,
      "enable": 7456,
      "lles": 7457,
      "argu": 7458,
      "stery": 7459,
      "stake": 7460,
      "cement": 7461,
      "veiled": 7462,
      "histo": 7463,
      "forbid": 7464,
      "sheet": 7465,
      "lick": 7466,
      "tery": 7467,
      "rained": 7468,
      "raging": 7469,
      "unkind": 7470,
      "doe": 7471,
      "pota": 7472,
      "converse": 7473,
      "confounded": 7474,
      "confirmed": 7475,
      "spade": 7476,
      "baik": 7477,
      "howling": 7478,
      "istan": 7479,
      "housekeeper": 7480,
      "broc": 7481,
      "estate": 7482,
      "Whence": 7483,
      "happiest": 7484,
      "gris": 7485,
      "disco": 7486,
      "horsemen": 7487,
      "Whatever": 7488,
      "ddy": 7489,
      "bedroom": 7490,
      "laring": 7491,
      "followers": 7492,
      "singular": 7493,
      "hum": 7494,
      "humour": 7495,
      "conditions": 7496,
      "chamo": 7497,
      "thirteen": 7498,
      "arrive": 7499,
      "minded": 7500,
      "hunted": 7501,
      "charcoal": 7502,
      "whistling": 7503,
      "sixty": 7504,
      "Anna": 7505,
      "tinue": 7506,
      "ginger": 7507,
      "villain": 7508,
      "Donald": 7509,
      "nests": 7510,
      "fatal": 7511,
      "starve": 7512,
      "Something": 7513,
      "musical": 7514,
      "Barbaik": 7515,
      "movement": 7516,
      "twigs": 7517,
      "Manus": 7518,
      "hoodie": 7519,
      "trod": 7520,
      "mourned": 7521,
      "rascal": 7522,
      "saddled": 7523,
      "Mrs": 7524,
      "reflecting": 7525,
      "Saouy": 7526,
      "concerned": 7527,
      "patched": 7528,
      "Harry": 7529,
      "consideration": 7530,
      "alds": 7531,
      "rendered": 7532,
      "stamped": 7533,
      "rescued": 7534,
      "printed": 7535,
      "kestail": 7536,
      "Directly": 7537,
      "groaning": 7538,
      "supply": 7539,
      "actions": 7540,
      "defend": 7541,
      "affliction": 7542,
      "elephants": 7543,
      "hippo": 7544,
      "addressing": 7545,
      "LITTLE": 7546,
      "preceding": 7547,
      "education": 7548,
      "compelled": 7549,
      "Drakestail": 7550,
      "bishop": 7551,
      "Kilweh": 7552,
      "reasons": 7553,
      "engraved": 7554,
      "recorded": 7555,
      "tapestry": 7556,
      "carpenter": 7557,
      "completed": 7558,
      "glimpse": 7559,
      "pavement": 7560,
      "EVENING": 7561,
      "-'": 7562,
      "AL": 7563,
      "Amer": 7564,
      "Brown": 7565,
      "Copen": 7566,
      "Ham": 7567,
      "Hol": 7568,
      "Praise": 7569,
      "Speak": 7570,
      "bars": 7571,
      "frying": 7572,
      "gna": 7573,
      "gging": 7574,
      "sher": 7575,
      "tug": 7576,
      "vit": 7577,
      "vig": 7578,
      "thest": 7579,
      "inable": 7580,
      "inser": 7581,
      "inclu": 7582,
      "rele": 7583,
      "reput": 7584,
      "toys": 7585,
      "asunder": 7586,
      "ency": 7587,
      "lls": 7588,
      "hagen": 7589,
      "bearer": 7590,
      "owe": 7591,
      "idents": 7592,
      "irald": 7593,
      "hoo": 7594,
      "lim": 7595,
      "hadn": 7596,
      "notwithstanding": 7597,
      "reduced": 7598,
      "mystery": 7599,
      "button": 7600,
      "decl": 7601,
      "uncomfortable": 7602,
      "indul": 7603,
      "boon": 7604,
      "tearing": 7605,
      "artist": 7606,
      "sparks": 7607,
      "wherewith": 7608,
      "cane": 7609,
      "oused": 7610,
      "asser": 7611,
      "disappointment": 7612,
      "undertake": 7613,
      "horseman": 7614,
      "jogi": 7615,
      "smi": 7616,
      "pleases": 7617,
      "gues": 7618,
      "chapter": 7619,
      "torted": 7620,
      "firewood": 7621,
      "promising": 7622,
      "Maie": 7623,
      "riddle": 7624,
      "Marie": 7625,
      "brightest": 7626,
      "steadily": 7627,
      "stump": 7628,
      "Whose": 7629,
      "Ange": 7630,
      "neighbors": 7631,
      "advise": 7632,
      "Than": 7633,
      "People": 7634,
      "confused": 7635,
      "deserves": 7636,
      "Everyone": 7637,
      "rattled": 7638,
      "trotted": 7639,
      "Conchu": 7640,
      "passages": 7641,
      "divide": 7642,
      "funny": 7643,
      "depend": 7644,
      "borg": 7645,
      "Rasheed": 7646,
      "Abd": 7647,
      "bloomed": 7648,
      "separate": 7649,
      "utterly": 7650,
      "Shiro": 7651,
      "erected": 7652,
      "Geirald": 7653,
      "ministers": 7654,
      "digging": 7655,
      "special": 7656,
      "Hudden": 7657,
      "saints": 7658,
      "reproach": 7659,
      "Whenever": 7660,
      "couplets": 7661,
      "trumpets": 7662,
      "inherit": 7663,
      "whirlwind": 7664,
      "regret": 7665,
      "qualities": 7666,
      "embarked": 7667,
      "carriages": 7668,
      "Vizier": 7669,
      "jaws": 7670,
      "gnome": 7671,
      "Royal": 7672,
      "Kokai": 7673,
      "dangers": 7674,
      "absolute": 7675,
      "Fatima": 7676,
      "Copenhagen": 7677,
      "Conchubar": 7678,
      "(\"": 7679,
      ".]": 7680,
      "14": 7681,
      "22": 7682,
      "Bah": 7683,
      "CK": 7684,
      "Cro": 7685,
      "Cast": 7686,
      "Eisen": 7687,
      "IGH": 7688,
      "Ori": 7689,
      "OLD": 7690,
      "Ri": 7691,
      "Sk": 7692,
      "Set": 7693,
      "Tr": 7694,
      "Ysp": 7695,
      "Year": 7696,
      "Zobe": 7697,
      "borders": 7698,
      "ciful": 7699,
      "foul": 7700,
      "gasped": 7701,
      "jor": 7702,
      "mson": 7703,
      "ored": 7704,
      "pies": 7705,
      "rs": 7706,
      "tread": 7707,
      "usale": 7708,
      "yon": 7709,
      "rella": 7710,
      "today": 7711,
      "attire": 7712,
      "enoushka": 7713,
      "sewed": 7714,
      "hares": 7715,
      "halted": 7716,
      "hibit": 7717,
      "veget": 7718,
      "yous": 7719,
      "nostri": 7720,
      "forgetting": 7721,
      "adi": 7722,
      "soared": 7723,
      "shelf": 7724,
      "neth": 7725,
      "upset": 7726,
      "lah": 7727,
      "lakes": 7728,
      "gems": 7729,
      "caution": 7730,
      "mocking": 7731,
      "shark": 7732,
      "quit": 7733,
      "woven": 7734,
      "factor": 7735,
      "seest": 7736,
      "ranks": 7737,
      "shaped": 7738,
      "apers": 7739,
      "begg": 7740,
      "fts": 7741,
      "procured": 7742,
      "newly": 7743,
      "repay": 7744,
      "repented": 7745,
      "sette": 7746,
      "disobey": 7747,
      "maybe": 7748,
      "passeng": 7749,
      "pleasing": 7750,
      "glances": 7751,
      "glantine": 7752,
      "partly": 7753,
      "guided": 7754,
      "drawer": 7755,
      "fleet": 7756,
      "observ": 7757,
      "brew": 7758,
      "workman": 7759,
      "jected": 7760,
      "midday": 7761,
      "knives": 7762,
      "forthwith": 7763,
      "Modern": 7764,
      "berg": 7765,
      "impud": 7766,
      "topmost": 7767,
      "chiefly": 7768,
      "Alenoushka": 7769,
      "baskets": 7770,
      "stumbled": 7771,
      "valent": 7772,
      "huts": 7773,
      "bbish": 7774,
      "cushion": 7775,
      "rolls": 7776,
      "submit": 7777,
      "harness": 7778,
      "visiting": 7779,
      "benefactor": 7780,
      "splendidly": 7781,
      "crossing": 7782,
      "shouts": 7783,
      "weariness": 7784,
      "remembering": 7785,
      "figs": 7786,
      "litter": 7787,
      "buildings": 7788,
      "Remember": 7789,
      "fortunately": 7790,
      "folks": 7791,
      "recognise": 7792,
      "Christians": 7793,
      "slid": 7794,
      "drinks": 7795,
      "sufferings": 7796,
      "eighteen": 7797,
      "rooted": 7798,
      "hounds": 7799,
      "fashioned": 7800,
      "glowed": 7801,
      "ornamented": 7802,
      "loads": 7803,
      "perfumed": 7804,
      "Truly": 7805,
      "resemb": 7806,
      "spectacles": 7807,
      "complained": 7808,
      "Cinderilla": 7809,
      "afflicted": 7810,
      "Maslia": 7811,
      "Murtough": 7812,
      "deepest": 7813,
      "proclaimed": 7814,
      "fiddle": 7815,
      "plumage": 7816,
      "apparent": 7817,
      "squeezed": 7818,
      "Denmark": 7819,
      "horrified": 7820,
      "savage": 7821,
      "cautiously": 7822,
      "issued": 7823,
      "adopted": 7824,
      "Jerusale": 7825,
      "comparison": 7826,
      "Matte": 7827,
      "ambergris": 7828,
      "gilded": 7829,
      "Lapland": 7830,
      "monument": 7831,
      "Zobeida": 7832,
      "Jerusalem": 7833,
      "'--": 7834,
      "27": 7835,
      "CON": 7836,
      "Duck": 7837,
      "Eiy": 7838,
      "LA": 7839,
      "LO": 7840,
      "Pen": 7841,
      "Rene": 7842,
      "Sitt": 7843,
      "Stre": 7844,
      "bou": 7845,
      "dge": 7846,
      "ffe": 7847,
      "fag": 7848,
      "fist": 7849,
      "fitting": 7850,
      "gloves": 7851,
      "pents": 7852,
      "shave": 7853,
      "heated": 7854,
      "infer": 7855,
      "invest": 7856,
      "reared": 7857,
      "ische": 7858,
      "llation": 7859,
      "itza": 7860,
      "meth": 7861,
      "secured": 7862,
      "chr": 7863,
      "somer": 7864,
      "sorely": 7865,
      "homed": 7866,
      "shew": 7867,
      "likes": 7868,
      "lilies": 7869,
      "cken": 7870,
      "tigers": 7871,
      "coven": 7872,
      "lac": 7873,
      "cable": 7874,
      "unwilling": 7875,
      "ami": 7876,
      "foe": 7877,
      "worry": 7878,
      "worship": 7879,
      "icious": 7880,
      "sayest": 7881,
      "overcame": 7882,
      "earthen": 7883,
      "earliest": 7884,
      "perch": 7885,
      "perceive": 7886,
      "howl": 7887,
      "offended": 7888,
      "offici": 7889,
      "roughly": 7890,
      "Weather": 7891,
      "bler": 7892,
      "tions": 7893,
      "counting": 7894,
      "bubble": 7895,
      "ahs": 7896,
      "cleve": 7897,
      "casting": 7898,
      "gait": 7899,
      "spoil": 7900,
      "slaught": 7901,
      "graves": 7902,
      "grazing": 7903,
      "couraged": 7904,
      "Being": 7905,
      "genie": 7906,
      "crimson": 7907,
      "wrung": 7908,
      "ighth": 7909,
      "splinter": 7910,
      "swarm": 7911,
      "flail": 7912,
      "studied": 7913,
      "dressing": 7914,
      "tumbling": 7915,
      "Shaykh": 7916,
      "corrup": 7917,
      "Rosette": 7918,
      "bounds": 7919,
      "wickedness": 7920,
      "reasonable": 7921,
      "cherry": 7922,
      "consist": 7923,
      "remarks": 7924,
      "peasants": 7925,
      "panes": 7926,
      "fix": 7927,
      "leaping": 7928,
      "complex": 7929,
      "dwarfs": 7930,
      "deliverance": 7931,
      "springs": 7932,
      "slightly": 7933,
      "Morevna": 7934,
      "Boy": 7935,
      "wagon": 7936,
      "anabe": 7937,
      "jealousy": 7938,
      "prettier": 7939,
      "reported": 7940,
      "article": 7941,
      "conquer": 7942,
      "correct": 7943,
      "preferred": 7944,
      "paces": 7945,
      "mournful": 7946,
      "congrat": 7947,
      "suggested": 7948,
      "dungeon": 7949,
      "festivities": 7950,
      "skirts": 7951,
      "decorated": 7952,
      "shudder": 7953,
      "Watanabe": 7954,
      "transported": 7955,
      "beetle": 7956,
      "PRIN": 7957,
      "sovereign": 7958,
      "Turkish": 7959,
      "Houarn": 7960,
      "Yamato": 7961,
      "discovery": 7962,
      "chamois": 7963,
      "hippopot": 7964,
      "Renelde": 7965,
      "Close": 7966,
      "Crane": 7967,
      "Carrier": 7968,
      "Dack": 7969,
      "Full": 7970,
      "Hase": 7971,
      "Hadv": 7972,
      "Liz": 7973,
      "Morn": 7974,
      "Snat": 7975,
      "Six": 7976,
      "Vol": 7977,
      "Zeman": 7978,
      "cdo": 7979,
      "fired": 7980,
      "gull": 7981,
      "gutter": 7982,
      "jars": 7983,
      "ku": 7984,
      "kid": 7985,
      "mmy": 7986,
      "mates": 7987,
      "park": 7988,
      "scho": 7989,
      "tam": 7990,
      "tasks": 7991,
      "vation": 7992,
      "wrink": 7993,
      "zu": 7994,
      "het": 7995,
      "hems": 7996,
      "insp": 7997,
      "requite": 7998,
      "reins": 7999,
      "rels": 8000,
      "retinue": 8001,
      "tolled": 8002,
      "onwards": 8003,
      "aroused": 8004,
      "sele": 8005,
      "seats": 8006,
      "besee": 8007,
      "wasted": 8008,
      "weaving": 8009,
      "ala": 8010,
      "hopper": 8011,
      "lily": 8012,
      "fere": 8013,
      "deh": 8014,
      "deity": 8015,
      "moist": 8016,
      "uncles": 8017,
      "aba": 8018,
      "roused": 8019,
      "ulated": 8020,
      "faced": 8021,
      "fakir": 8022,
      "sume": 8023,
      "constant": 8024,
      "consol": 8025,
      "acity": 8026,
      "rules": 8027,
      "baza": 8028,
      "overwhel": 8029,
      "earlier": 8030,
      "mbler": 8031,
      "afterward": 8032,
      "plague": 8033,
      "lowered": 8034,
      "protest": 8035,
      "carries": 8036,
      "serpents": 8037,
      "joyous": 8038,
      "dip": 8039,
      "winding": 8040,
      "tenth": 8041,
      "pleasures": 8042,
      "appren": 8043,
      "walks": 8044,
      "clut": 8045,
      "humbly": 8046,
      "slab": 8047,
      "namely": 8048,
      "chaps": 8049,
      "workmen": 8050,
      "helping": 8051,
      "bitches": 8052,
      "parson": 8053,
      "magpie": 8054,
      "Afterwards": 8055,
      "flocks": 8056,
      "empress": 8057,
      "diff": 8058,
      "bracket": 8059,
      "interview": 8060,
      "Maria": 8061,
      "flax": 8062,
      "ordering": 8063,
      "Sultana": 8064,
      "stud": 8065,
      "mix": 8066,
      "souls": 8067,
      "stricken": 8068,
      "dense": 8069,
      "solid": 8070,
      "desirest": 8071,
      "advance": 8072,
      "favours": 8073,
      "tical": 8074,
      "Rosy": 8075,
      "warmly": 8076,
      "sorrows": 8077,
      "salmon": 8078,
      "hardest": 8079,
      "guardian": 8080,
      "respects": 8081,
      "leader": 8082,
      "petti": 8083,
      "circ": 8084,
      "pressing": 8085,
      "block": 8086,
      "suspic": 8087,
      "hosts": 8088,
      "anguish": 8089,
      "annon": 8090,
      "tombs": 8091,
      "fountains": 8092,
      "interested": 8093,
      "Thiuli": 8094,
      "entertained": 8095,
      "sprinkle": 8096,
      "rejoicings": 8097,
      "Paper": 8098,
      "greedily": 8099,
      "revealed": 8100,
      "Mountains": 8101,
      "glimmer": 8102,
      "Buddhis": 8103,
      "Dwarfs": 8104,
      "hedgehog": 8105,
      "hospitality": 8106,
      "apparel": 8107,
      "Mirror": 8108,
      "sieve": 8109,
      "Schah": 8110,
      "sorcerer": 8111,
      "doom": 8112,
      "lindorm": 8113,
      "swineherd": 8114,
      "beckoned": 8115,
      "_Source": 8116,
      "Sentaro": 8117,
      "sympa": 8118,
      "covenant": 8119,
      "PRINCE": 8120,
      "Dacker": 8121,
      "Hadvor": 8122,
      "Snati": 8123,
      "\"--": 8124,
      ".;": 8125,
      "26": 8126,
      "30": 8127,
      "50": 8128,
      "City": 8129,
      "Crab": 8130,
      "Cadi": 8131,
      "EY": 8132,
      "Eld": 8133,
      "Fish": 8134,
      "Hag": 8135,
      "Isu": 8136,
      "Lon": 8137,
      "Lus": 8138,
      "Mab": 8139,
      "Mil": 8140,
      "Ret": 8141,
      "Rich": 8142,
      "Ryn": 8143,
      "Sark": 8144,
      "Tuk": 8145,
      "Ur": 8146,
      "bing": 8147,
      "eighth": 8148,
      "fus": 8149,
      "glo": 8150,
      "lings": 8151,
      "mity": 8152,
      "ns": 8153,
      "pend": 8154,
      "pane": 8155,
      "rar": 8156,
      "sway": 8157,
      "skilled": 8158,
      "renew": 8159,
      "retire": 8160,
      "edges": 8161,
      "itter": 8162,
      "leag": 8163,
      "hild": 8164,
      "wig": 8165,
      "veins": 8166,
      "ghost": 8167,
      "ada": 8168,
      "sop": 8169,
      "soap": 8170,
      "hadst": 8171,
      "rian": 8172,
      "rier": 8173,
      "terrace": 8174,
      "deceive": 8175,
      "causing": 8176,
      "unseen": 8177,
      "hatred": 8178,
      "loan": 8179,
      "ulting": 8180,
      "quin": 8181,
      "wot": 8182,
      "concub": 8183,
      "afford": 8184,
      "afresh": 8185,
      "access": 8186,
      "oper": 8187,
      "exquisite": 8188,
      "gie": 8189,
      "shaving": 8190,
      "perse": 8191,
      "rowing": 8192,
      "shouldst": 8193,
      "grasp": 8194,
      "uese": 8195,
      "waking": 8196,
      "dismal": 8197,
      "shock": 8198,
      "hearty": 8199,
      "compre": 8200,
      "ordain": 8201,
      "psed": 8202,
      "clusion": 8203,
      "cutta": 8204,
      "insen": 8205,
      "obstin": 8206,
      "vii": 8207,
      "slam": 8208,
      "chambers": 8209,
      "champion": 8210,
      "scull": 8211,
      "remainder": 8212,
      "Molly": 8213,
      "empire": 8214,
      "flapped": 8215,
      "wilder": 8216,
      "dragons": 8217,
      "approved": 8218,
      "Shams": 8219,
      "feasts": 8220,
      "Think": 8221,
      "realm": 8222,
      "villages": 8223,
      "babies": 8224,
      "streaming": 8225,
      "starved": 8226,
      "grocer": 8227,
      "invite": 8228,
      "dances": 8229,
      "avail": 8230,
      "divine": 8231,
      "damsels": 8232,
      "smelling": 8233,
      "taller": 8234,
      "gleam": 8235,
      "Sunlight": 8236,
      "dreadfully": 8237,
      "considering": 8238,
      "recognized": 8239,
      "suspect": 8240,
      "wroth": 8241,
      "icians": 8242,
      "patch": 8243,
      "requested": 8244,
      "shriek": 8245,
      "REE": 8246,
      "crackled": 8247,
      "malice": 8248,
      "speedily": 8249,
      "ceremonies": 8250,
      "wager": 8251,
      "Name": 8252,
      "Alexandria": 8253,
      "True": 8254,
      "grumbling": 8255,
      "resembled": 8256,
      "thorns": 8257,
      "infant": 8258,
      "converted": 8259,
      "cabbage": 8260,
      "complaint": 8261,
      "furiously": 8262,
      "impatience": 8263,
      "statues": 8264,
      "conquered": 8265,
      "Carab": 8266,
      "Calcutta": 8267,
      "astrolo": 8268,
      "style": 8269,
      "Nuz": 8270,
      "ribbons": 8271,
      "dainty": 8272,
      "relieved": 8273,
      "esteem": 8274,
      "multitude": 8275,
      "alluded": 8276,
      "Luckily": 8277,
      "swelled": 8278,
      "equivalent": 8279,
      "attempted": 8280,
      "Katar": 8281,
      "brandy": 8282,
      "Barmec": 8283,
      "Ivanov": 8284,
      "ablution": 8285,
      "Portuguese": 8286,
      "cauldron": 8287,
      "Eiyoob": 8288,
      "Isuro": 8289,
      "Sarkap": 8290,
      "Bible": 8291,
      "Eve": 8292,
      "Gou": 8293,
      "Gro": 8294,
      "Imper": 8295,
      "Jon": 8296,
      "Kaz": 8297,
      "Mes": 8298,
      "Pry": 8299,
      "Psy": 8300,
      "RI": 8301,
      "Rise": 8302,
      "SS": 8303,
      "Sho": 8304,
      "TY": 8305,
      "Tan": 8306,
      "Tig": 8307,
      "Wi": 8308,
      "Wonder": 8309,
      "bable": 8310,
      "bunch": 8311,
      "gus": 8312,
      "glee": 8313,
      "ggy": 8314,
      "ias": 8315,
      "ilies": 8316,
      "lane": 8317,
      "oars": 8318,
      "wate": 8319,
      "wakened": 8320,
      "wrig": 8321,
      "witty": 8322,
      "yo": 8323,
      "yu": 8324,
      "reven": 8325,
      "tol": 8326,
      "tonight": 8327,
      "asel": 8328,
      "atic": 8329,
      "mered": 8330,
      "sect": 8331,
      "idiot": 8332,
      "sala": 8333,
      "sabre": 8334,
      "nock": 8335,
      "weave": 8336,
      "vering": 8337,
      "verine": 8338,
      "ady": 8339,
      "esy": 8340,
      "nech": 8341,
      "depos": 8342,
      "unge": 8343,
      "unjust": 8344,
      "unpleasant": 8345,
      "peck": 8346,
      "aby": 8347,
      "asty": 8348,
      "ulation": 8349,
      "aree": 8350,
      "thereby": 8351,
      "teth": 8352,
      "illust": 8353,
      "theirs": 8354,
      "afther": 8355,
      "achi": 8356,
      "spi": 8357,
      "spacious": 8358,
      "icing": 8359,
      "ically": 8360,
      "ruff": 8361,
      "comely": 8362,
      "overpow": 8363,
      "handmaid": 8364,
      "lowest": 8365,
      "imer": 8366,
      "immon": 8367,
      "puts": 8368,
      "evenings": 8369,
      "gotten": 8370,
      "Into": 8371,
      "tresses": 8372,
      "wald": 8373,
      "disput": 8374,
      "discu": 8375,
      "seriously": 8376,
      "armor": 8377,
      "plunge": 8378,
      "appre": 8379,
      "flee": 8380,
      "grapes": 8381,
      "pavi": 8382,
      "fires": 8383,
      "deadly": 8384,
      "fluttering": 8385,
      "scy": 8386,
      "highness": 8387,
      "Mahomed": 8388,
      "yeh": 8389,
      "prettily": 8390,
      "interfere": 8391,
      "families": 8392,
      "THER": 8393,
      "Although": 8394,
      "growth": 8395,
      "charmed": 8396,
      "puff": 8397,
      "painter": 8398,
      "breadth": 8399,
      "crawled": 8400,
      "favourable": 8401,
      "Roe": 8402,
      "harvest": 8403,
      "anecdo": 8404,
      "crash": 8405,
      "gravely": 8406,
      "musicians": 8407,
      "ferry": 8408,
      "Conan": 8409,
      "transform": 8410,
      "gazelles": 8411,
      "nettles": 8412,
      "nicely": 8413,
      "prisoners": 8414,
      "communic": 8415,
      "dirt": 8416,
      "dirhems": 8417,
      "dwells": 8418,
      "slung": 8419,
      "smote": 8420,
      "Duchess": 8421,
      "victim": 8422,
      "regation": 8423,
      "weakness": 8424,
      "Pigeon": 8425,
      "instructions": 8426,
      "Dame": 8427,
      "ravens": 8428,
      "strawberries": 8429,
      "virtu": 8430,
      "Beautiful": 8431,
      "loft": 8432,
      "scrap": 8433,
      "scrambled": 8434,
      "wheelbarrow": 8435,
      "favorite": 8436,
      "assuredly": 8437,
      "poisonous": 8438,
      "recite": 8439,
      "sufficiently": 8440,
      "groaned": 8441,
      "graciously": 8442,
      "ebony": 8443,
      "Child": 8444,
      "skewer": 8445,
      "iyah": 8446,
      "Shark": 8447,
      "crocodiles": 8448,
      "dignified": 8449,
      "Jinnee": 8450,
      "ninety": 8451,
      "believer": 8452,
      "Irishman": 8453,
      "WITH": 8454,
      "injury": 8455,
      "ribbon": 8456,
      "esteemed": 8457,
      "divert": 8458,
      "liquid": 8459,
      "huntsmen": 8460,
      "miracle": 8461,
      "neglected": 8462,
      "violets": 8463,
      "Jataka": 8464,
      "Toole": 8465,
      "pebbles": 8466,
      "Hardly": 8467,
      "dusk": 8468,
      "behaviour": 8469,
      "acknowledged": 8470,
      "Spring": 8471,
      "released": 8472,
      "nostrils": 8473,
      "faggot": 8474,
      "Weatherbeard": 8475,
      "complexion": 8476,
      "Paperare": 8477,
      "Ivanovitch": 8478,
      "Gouie": 8479,
      "Pryderi": 8480,
      "watered": 8481,
      "Bry": 8482,
      "Cho": 8483,
      "Glady": 8484,
      "Hus": 8485,
      "Kjo": 8486,
      "Kabo": 8487,
      "Med": 8488,
      "Mark": 8489,
      "Ped": 8490,
      "Si": 8491,
      "Sever": 8492,
      "Ul": 8493,
      "_The": 8494,
      "_Re": 8495,
      "bony": 8496,
      "bikin": 8497,
      "dulc": 8498,
      "fried": 8499,
      "kop": 8500,
      "lent": 8501,
      "mits": 8502,
      "pho": 8503,
      "pied": 8504,
      "pilgri": 8505,
      "rated": 8506,
      "rase": 8507,
      "sour": 8508,
      "sche": 8509,
      "snor": 8510,
      "tus": 8511,
      "uce": 8512,
      "replaced": 8513,
      "regained": 8514,
      "eding": 8515,
      "erred": 8516,
      "ative": 8517,
      "llings": 8518,
      "oro": 8519,
      "orang": 8520,
      "iter": 8521,
      "meh": 8522,
      "besought": 8523,
      "velled": 8524,
      "rol": 8525,
      "chard": 8526,
      "weigh": 8527,
      "weaver": 8528,
      "weasel": 8529,
      "soil": 8530,
      "soles": 8531,
      "limp": 8532,
      "tified": 8533,
      "coll": 8534,
      "del": 8535,
      "races": 8536,
      "univer": 8537,
      "whips": 8538,
      "pears": 8539,
      "fog": 8540,
      "agony": 8541,
      "indif": 8542,
      "suited": 8543,
      "foretold": 8544,
      "Hear": 8545,
      "conceived": 8546,
      "Andras": 8547,
      "mail": 8548,
      "makers": 8549,
      "loom": 8550,
      "loosed": 8551,
      "shawl": 8552,
      "perish": 8553,
      "plains": 8554,
      "goodly": 8555,
      "mules": 8556,
      "probable": 8557,
      "lightened": 8558,
      "uses": 8559,
      "Inches": 8560,
      "disappearance": 8561,
      "spears": 8562,
      "pleaded": 8563,
      "appellation": 8564,
      "silvery": 8565,
      "miner": 8566,
      "slaughter": 8567,
      "hyr": 8568,
      "ugust": 8569,
      "pause": 8570,
      "persimmon": 8571,
      "strat": 8572,
      "Does": 8573,
      "frey": 8574,
      "hairy": 8575,
      "relating": 8576,
      "needful": 8577,
      "swoo": 8578,
      "hurrying": 8579,
      "garter": 8580,
      "garret": 8581,
      "pitied": 8582,
      "painful": 8583,
      "tured": 8584,
      "appropri": 8585,
      "Indies": 8586,
      "cracking": 8587,
      "peacefully": 8588,
      "Quite": 8589,
      "twig": 8590,
      "trot": 8591,
      "doubtless": 8592,
      "divil": 8593,
      "matches": 8594,
      "snapped": 8595,
      "Empress": 8596,
      "Parrot": 8597,
      "shepherdess": 8598,
      "descending": 8599,
      "trusty": 8600,
      "combed": 8601,
      "nodding": 8602,
      "stooping": 8603,
      "tiresome": 8604,
      "wolverine": 8605,
      "teaching": 8606,
      "Thir": 8607,
      "innoc": 8608,
      "stamping": 8609,
      "grumbled": 8610,
      "Fergus": 8611,
      "conversed": 8612,
      "--------": 8613,
      "superior": 8614,
      "Desire": 8615,
      "feeble": 8616,
      "chanced": 8617,
      "calmly": 8618,
      "chicken": 8619,
      "Turks": 8620,
      "requires": 8621,
      "pretending": 8622,
      "congregation": 8623,
      "Lambikin": 8624,
      "lattice": 8625,
      "betrayed": 8626,
      "Mohammad": 8627,
      "napkin": 8628,
      "echoed": 8629,
      "Puss": 8630,
      "glaci": 8631,
      "spurs": 8632,
      "Welcome": 8633,
      "Councillor": 8634,
      "eternal": 8635,
      "prophecy": 8636,
      "gandher": 8637,
      "panting": 8638,
      "monstrous": 8639,
      "Balna": 8640,
      "poultry": 8641,
      "ridiculous": 8642,
      "illuminated": 8643,
      "practised": 8644,
      "Bahman": 8645,
      "Orient": 8646,
      "christening": 8647,
      "Lizina": 8648,
      "scholar": 8649,
      "bazaar": 8650,
      "Nuzhet": 8651,
      "Psyche": 8652,
      "Within": 8653,
      "overpowered": 8654,
      "Paperarello": 8655,
      "Gladys": 8656,
      "_Remarks": 8657,
      "dulcimer": 8658,
      "oranges": 8659,
      ".).": 8660,
      "Bid": 8661,
      "Bus": 8662,
      "Cuc": 8663,
      "Dull": 8664,
      "Gun": 8665,
      "House": 8666,
      "HIS": 8667,
      "II": 8668,
      "Jane": 8669,
      "Sal": 8670,
      "Span": 8671,
      "Tin": 8672,
      "Winter": 8673,
      "Zizi": 8674,
      "apo": 8675,
      "driver": 8676,
      "ejac": 8677,
      "frown": 8678,
      "kitten": 8679,
      "mm": 8680,
      "nasty": 8681,
      "omen": 8682,
      "pac": 8683,
      "psal": 8684,
      "scour": 8685,
      "uct": 8686,
      "wint": 8687,
      "zir": 8688,
      "heel": 8689,
      "heather": 8690,
      "iner": 8691,
      "ands": 8692,
      "oub": 8693,
      "aspect": 8694,
      "istic": 8695,
      "envied": 8696,
      "organ": 8697,
      "meals": 8698,
      "halt": 8699,
      "strode": 8700,
      "ceme": 8701,
      "ado": 8702,
      "holid": 8703,
      "liken": 8704,
      "notion": 8705,
      "cove": 8706,
      "fet": 8707,
      "outward": 8708,
      "deign": 8709,
      "moat": 8710,
      "raw": 8711,
      "unworthy": 8712,
      "unconscious": 8713,
      "pew": 8714,
      "amus": 8715,
      "ammil": 8716,
      "popo": 8717,
      "poles": 8718,
      "ager": 8719,
      "ares": 8720,
      "anta": 8721,
      "shorter": 8722,
      "quality": 8723,
      "fawn": 8724,
      "facing": 8725,
      "hedges": 8726,
      "spind": 8727,
      "opposed": 8728,
      "ruins": 8729,
      "itect": 8730,
      "henwife": 8731,
      "peril": 8732,
      "chir": 8733,
      "ullin": 8734,
      "propose": 8735,
      "project": 8736,
      "imou": 8737,
      "sery": 8738,
      "desiring": 8739,
      "stillness": 8740,
      "Nov": 8741,
      "glen": 8742,
      "shillings": 8743,
      "flows": 8744,
      "vived": 8745,
      "viously": 8746,
      "ugg": 8747,
      "torch": 8748,
      "jewell": 8749,
      "remaineth": 8750,
      "Bellah": 8751,
      "sandals": 8752,
      "dropping": 8753,
      "hesitation": 8754,
      "Dotter": 8755,
      "promises": 8756,
      "chanted": 8757,
      "Maimou": 8758,
      "bane": 8759,
      "strangely": 8760,
      "Toad": 8761,
      "Marza": 8762,
      "flags": 8763,
      "flapping": 8764,
      "answering": 8765,
      "busily": 8766,
      "pitched": 8767,
      "tutor": 8768,
      "honourable": 8769,
      "covers": 8770,
      "crowds": 8771,
      "deny": 8772,
      "awk": 8773,
      "counsell": 8774,
      "secrets": 8775,
      "pickaxe": 8776,
      "Deli": 8777,
      "respectfully": 8778,
      "crate": 8779,
      "cruc": 8780,
      "moral": 8781,
      "vari": 8782,
      "fishermen": 8783,
      "decree": 8784,
      "wreck": 8785,
      "sym": 8786,
      "dealt": 8787,
      "enchantress": 8788,
      "bursting": 8789,
      "brim": 8790,
      "passes": 8791,
      "Pope": 8792,
      "Popopo": 8793,
      "smeared": 8794,
      "cooks": 8795,
      "assembly": 8796,
      "Walde": 8797,
      "hitherto": 8798,
      "Badoura": 8799,
      "Woe": 8800,
      "Dudden": 8801,
      "region": 8802,
      "Piro": 8803,
      "instructed": 8804,
      "galloping": 8805,
      "shrieking": 8806,
      "crackling": 8807,
      "physicians": 8808,
      "lodge": 8809,
      "Help": 8810,
      "sighs": 8811,
      "Thumbling": 8812,
      "incense": 8813,
      "lamented": 8814,
      "struggling": 8815,
      "ornament": 8816,
      "addition": 8817,
      "stamp": 8818,
      "admiring": 8819,
      "mendic": 8820,
      "quantities": 8821,
      "spectacle": 8822,
      "000": 8823,
      "chanter": 8824,
      "disguised": 8825,
      "piercing": 8826,
      "distinction": 8827,
      "swinging": 8828,
      "Magician": 8829,
      "uniform": 8830,
      "neatly": 8831,
      "couplet": 8832,
      "TAI": 8833,
      "relieve": 8834,
      "Welwa": 8835,
      "impertin": 8836,
      "compliments": 8837,
      "Victor": 8838,
      "imitate": 8839,
      "prevailed": 8840,
      "industrious": 8841,
      "Kalandar": 8842,
      "Hurrah": 8843,
      "bruised": 8844,
      "Mutaammil": 8845,
      "welfth": 8846,
      "scenes": 8847,
      "citizens": 8848,
      "gingerbread": 8849,
      "sherbet": 8850,
      "Castle": 8851,
      "Eisenkop": 8852,
      "passengers": 8853,
      "sympathy": 8854,
      "insensible": 8855,
      "Tanuki": 8856,
      "deposited": 8857,
      "Kjoge": 8858,
      "Cucullin": 8859,
      "Dotterine": 8860,
      "Marzavan": 8861,
      "Waldemar": 8862,
      "Eisenkopf": 8863,
      "):": 8864,
      "29": 8865,
      "BO": 8866,
      "Ble": 8867,
      "Cre": 8868,
      "Chur": 8869,
      "Dum": 8870,
      "Ene": 8871,
      "Fie": 8872,
      "Flor": 8873,
      "Ga": 8874,
      "Glor": 8875,
      "Gille": 8876,
      "Hump": 8877,
      "Iar": 8878,
      "Kou": 8879,
      "Khu": 8880,
      "Men": 8881,
      "Mun": 8882,
      "Met": 8883,
      "Mair": 8884,
      "PAR": 8885,
      "Sab": 8886,
      "Tara": 8887,
      "_Par": 8888,
      "ahead": 8889,
      "dine": 8890,
      "fable": 8891,
      "fring": 8892,
      "gap": 8893,
      "hr": 8894,
      "iree": 8895,
      "kan": 8896,
      "mun": 8897,
      "nought": 8898,
      "wy": 8899,
      "zi": 8900,
      "healed": 8901,
      "retorted": 8902,
      "torious": 8903,
      "eno": 8904,
      "arily": 8905,
      "array": 8906,
      "level": 8907,
      "mee": 8908,
      "betook": 8909,
      "idol": 8910,
      "china": 8911,
      "thatched": 8912,
      "sobbing": 8913,
      "withdrew": 8914,
      "homage": 8915,
      "entrust": 8916,
      "limb": 8917,
      "labor": 8918,
      "deth": 8919,
      "rael": 8920,
      "united": 8921,
      "ungrateful": 8922,
      "unfolded": 8923,
      "goe": 8924,
      "goddess": 8925,
      "peth": 8926,
      "abled": 8927,
      "absor": 8928,
      "byre": 8929,
      "poe": 8930,
      "agen": 8931,
      "antelo": 8932,
      "shy": 8933,
      "shrank": 8934,
      "quitted": 8935,
      "ryar": 8936,
      "tooth": 8937,
      "sund": 8938,
      "pple": 8939,
      "tee": 8940,
      "tean": 8941,
      "Head": 8942,
      "conven": 8943,
      "conserve": 8944,
      "conclusion": 8945,
      "illustr": 8946,
      "mpy": 8947,
      "endured": 8948,
      "olden": 8949,
      "accost": 8950,
      "sped": 8951,
      "spending": 8952,
      "ounded": 8953,
      "rubbish": 8954,
      "bake": 8955,
      "gigan": 8956,
      "whereon": 8957,
      "ideas": 8958,
      "anyhow": 8959,
      "assins": 8960,
      "dame": 8961,
      "marching": 8962,
      "margin": 8963,
      "elves": 8964,
      "prospect": 8965,
      "merri": 8966,
      "sets": 8967,
      "mongoe": 8968,
      "discourse": 8969,
      "spected": 8970,
      "job": 8971,
      "clown": 8972,
      "insult": 8973,
      "untied": 8974,
      "slapped": 8975,
      "lieve": 8976,
      "torches": 8977,
      "fasten": 8978,
      "flashing": 8979,
      "scant": 8980,
      "parties": 8981,
      "strayed": 8982,
      "sandy": 8983,
      "finely": 8984,
      "Arabian": 8985,
      "giantess": 8986,
      "interpret": 8987,
      "beydeh": 8988,
      "magicians": 8989,
      "growled": 8990,
      "evident": 8991,
      "charity": 8992,
      "chario": 8993,
      "honored": 8994,
      "surprising": 8995,
      "phrase": 8996,
      "Islands": 8997,
      "Israel": 8998,
      "rejoice": 8999,
      "Going": 9000,
      "Goblin": 9001,
      "straightway": 9002,
      "Hermod": 9003,
      "choked": 9004,
      "resort": 9005,
      "shady": 9006,
      "calcul": 9007,
      "payment": 9008,
      "thicker": 9009,
      "Everybody": 9010,
      "nursery": 9011,
      "crowned": 9012,
      "sends": 9013,
      "croak": 9014,
      "Stupid": 9015,
      "Arise": 9016,
      "Quack": 9017,
      "Whilst": 9018,
      "turf": 9019,
      "Snowflake": 9020,
      "imagination": 9021,
      "buying": 9022,
      "cleverness": 9023,
      "brick": 9024,
      "blocks": 9025,
      "cockcha": 9026,
      "resolution": 9027,
      "Shahryar": 9028,
      "swiftness": 9029,
      "Daim": 9030,
      "shrieks": 9031,
      "virtuous": 9032,
      "executed": 9033,
      "delayed": 9034,
      "architect": 9035,
      "objects": 9036,
      "temptation": 9037,
      "Finally": 9038,
      "sprite": 9039,
      "incident": 9040,
      "effects": 9041,
      "embroid": 9042,
      "Grumbler": 9043,
      "razor": 9044,
      "resembling": 9045,
      "commencement": 9046,
      "spectators": 9047,
      "Desiree": 9048,
      "frequent": 9049,
      "Chief": 9050,
      "darling": 9051,
      "Tales_": 9052,
      "inscribed": 9053,
      "sweeping": 9054,
      "tanuki": 9055,
      "compliment": 9056,
      "vagab": 9057,
      "Grass": 9058,
      "connected": 9059,
      "Patrick": 9060,
      "Chamberlains": 9061,
      "Zubeydeh": 9062,
      "memlooks": 9063,
      "government": 9064,
      "elapsed": 9065,
      "prudent": 9066,
      "distribut": 9067,
      "kneeling": 9068,
      "gorod": 9069,
      "drunken": 9070,
      "Venus": 9071,
      "vegetables": 9072,
      "beggars": 9073,
      "apparently": 9074,
      "overwhelmed": 9075,
      "fuscu": 9076,
      "Jonas": 9077,
      "scythe": 9078,
      "Ulster": 9079,
      "snoring": 9080,
      "Novgorod": 9081,
      "awkward": 9082,
      "Blefuscu": 9083,
      "Iarlaid": 9084,
      "Koumongoe": 9085,
      "Mairtean": 9086,
      "_Parallels": 9087,
      "gigantic": 9088,
      "AY": 9089,
      "August": 9090,
      "Call": 9091,
      "Der": 9092,
      "Fif": 9093,
      "Grub": 9094,
      "Ili": 9095,
      "Mih": 9096,
      "Ol": 9097,
      "SI": 9098,
      "Swi": 9099,
      "Send": 9100,
      "Sleep": 9101,
      "Tub": 9102,
      "bin": 9103,
      "bend": 9104,
      "bonds": 9105,
      "dur": 9106,
      "ders": 9107,
      "ez": 9108,
      "erer": 9109,
      "gul": 9110,
      "gilt": 9111,
      "hue": 9112,
      "lank": 9113,
      "mart": 9114,
      "nhild": 9115,
      "prow": 9116,
      "pledge": 9117,
      "rus": 9118,
      "twelfth": 9119,
      "wars": 9120,
      "waken": 9121,
      "injured": 9122,
      "rein": 9123,
      "isin": 9124,
      "itated": 9125,
      "mey": 9126,
      "seating": 9127,
      "bellow": 9128,
      "rogue": 9129,
      "wears": 9130,
      "altered": 9131,
      "sheath": 9132,
      "nez": 9133,
      "noticing": 9134,
      "tile": 9135,
      "coals": 9136,
      "feign": 9137,
      "feature": 9138,
      "lave": 9139,
      "laces": 9140,
      "peg": 9141,
      "foli": 9142,
      "rind": 9143,
      "agers": 9144,
      "shche": 9145,
      "quen": 9146,
      "quake": 9147,
      "bother": 9148,
      "tech": 9149,
      "gress": 9150,
      "selfish": 9151,
      "Hearing": 9152,
      "tapers": 9153,
      "whatso": 9154,
      "span": 9155,
      "spat": 9156,
      "spout": 9157,
      "reel": 9158,
      "oppose": 9159,
      "answers": 9160,
      "exten": 9161,
      "exposed": 9162,
      "bald": 9163,
      "idel": 9164,
      "cano": 9165,
      "undered": 9166,
      "backward": 9167,
      "Ital": 9168,
      "apt": 9169,
      "brute": 9170,
      "Sheykh": 9171,
      "imus": 9172,
      "lighter": 9173,
      "beauties": 9174,
      "ancestors": 9175,
      "Young": 9176,
      "sunbeams": 9177,
      "volu": 9178,
      "control": 9179,
      "grounds": 9180,
      "carelessly": 9181,
      "engage": 9182,
      "sights": 9183,
      "hasty": 9184,
      "Beware": 9185,
      "parlor": 9186,
      "Godfrey": 9187,
      "wert": 9188,
      "crimin": 9189,
      "wrist": 9190,
      "impression": 9191,
      "float": 9192,
      "baron": 9193,
      "Taking": 9194,
      "ridges": 9195,
      "Marchen": 9196,
      "basan": 9197,
      "stripes": 9198,
      "Anne": 9199,
      "tink": 9200,
      "coral": 9201,
      "paste": 9202,
      "madman": 9203,
      "thickly": 9204,
      "auld": 9205,
      "capable": 9206,
      "crumbs": 9207,
      "Jelees": 9208,
      "softened": 9209,
      "pastor": 9210,
      "exact": 9211,
      "Really": 9212,
      "mattress": 9213,
      "lication": 9214,
      "threads": 9215,
      "breasts": 9216,
      "devils": 9217,
      "clums": 9218,
      "wronged": 9219,
      "butterflies": 9220,
      "rupees": 9221,
      "masses": 9222,
      "radiant": 9223,
      "salutation": 9224,
      "virgin": 9225,
      "beggarman": 9226,
      "lodged": 9227,
      "beaks": 9228,
      "threaten": 9229,
      "sweeter": 9230,
      "Orbasan": 9231,
      "toads": 9232,
      "descriptions": 9233,
      "seashore": 9234,
      "impatiently": 9235,
      "intending": 9236,
      "Should": 9237,
      "Koshche": 9238,
      "Follow": 9239,
      "chattered": 9240,
      "descendants": 9241,
      "weapon": 9242,
      "cabinet": 9243,
      "inherited": 9244,
      "moaned": 9245,
      "moaning": 9246,
      "horribly": 9247,
      "huntsman": 9248,
      "tempered": 9249,
      "raspberry": 9250,
      "ambassador": 9251,
      "Scheih": 9252,
      "Feni": 9253,
      "intimate": 9254,
      "treachery": 9255,
      "abandoned": 9256,
      "blankets": 9257,
      "torrents": 9258,
      "weeds": 9259,
      "columns": 9260,
      "forgiveness": 9261,
      "Hidesato": 9262,
      "Thanks": 9263,
      "absolutely": 9264,
      "Riquet": 9265,
      "Elder": 9266,
      "London": 9267,
      "Lusmore": 9268,
      "leagues": 9269,
      "Barmecide": 9270,
      "Groac": 9271,
      "Kazi": 9272,
      "virtues": 9273,
      "Brynhild": 9274,
      "Several": 9275,
      "stratage": 9276,
      "Dullhead": 9277,
      "likeness": 9278,
      "Delicia": 9279,
      "Enees": 9280,
      "Grubbe": 9281,
      "Koshchei": 9282,
      "21": 9283,
      "AI": 9284,
      "Ay": 9285,
      "Ant": 9286,
      "Aina": 9287,
      "BA": 9288,
      "Boo": 9289,
      "Crow": 9290,
      "DI": 9291,
      "Dark": 9292,
      "Eglantine": 9293,
      "Gor": 9294,
      "Gate": 9295,
      "Gaz": 9296,
      "Hir": 9297,
      "Hung": 9298,
      "Haro": 9299,
      "Jut": 9300,
      "Jud": 9301,
      "Line": 9302,
      "Lau": 9303,
      "MY": 9304,
      "Ninny": 9305,
      "Og": 9306,
      "Sam": 9307,
      "Stories": 9308,
      "TW": 9309,
      "Van": 9310,
      "Ya": 9311,
      "aper": 9312,
      "abee": 9313,
      "acocks": 9314,
      "bby": 9315,
      "border": 9316,
      "cass": 9317,
      "dder": 9318,
      "emotion": 9319,
      "fers": 9320,
      "iped": 9321,
      "iban": 9322,
      "lass": 9323,
      "lined": 9324,
      "mood": 9325,
      "nas": 9326,
      "pater": 9327,
      "rons": 9328,
      "sis": 9329,
      "sno": 9330,
      "twas": 9331,
      "tank": 9332,
      "zik": 9333,
      "hend": 9334,
      "remo": 9335,
      "tossing": 9336,
      "asil": 9337,
      "llis": 9338,
      "arman": 9339,
      "seq": 9340,
      "secur": 9341,
      "sealed": 9342,
      "haul": 9343,
      "stature": 9344,
      "chatter": 9345,
      "forge": 9346,
      "formu": 9347,
      "sobs": 9348,
      "almon": 9349,
      "hoarse": 9350,
      "espied": 9351,
      "sheer": 9352,
      "noted": 9353,
      "redou": 9354,
      "timid": 9355,
      "core": 9356,
      "coco": 9357,
      "coax": 9358,
      "myr": 9359,
      "laz": 9360,
      "laure": 9361,
      "deen": 9362,
      "caps": 9363,
      "ssul": 9364,
      "foes": 9365,
      "abide": 9366,
      "abuse": 9367,
      "abstain": 9368,
      ".\"'": 9369,
      "shan": 9370,
      "ppled": 9371,
      "consumed": 9372,
      "active": 9373,
      "rue": 9374,
      "rumbling": 9375,
      "bacon": 9376,
      "downcast": 9377,
      "handsomer": 9378,
      "canal": 9379,
      "iece": 9380,
      "chid": 9381,
      "brood": 9382,
      "estab": 9383,
      "irer": 9384,
      "muff": 9385,
      "thoughtfully": 9386,
      "bris": 9387,
      "prose": 9388,
      "proportion": 9389,
      "tying": 9390,
      "mony": 9391,
      "cream": 9392,
      "strewn": 9393,
      "cies": 9394,
      "plaster": 9395,
      "apply": 9396,
      "gliding": 9397,
      "northern": 9398,
      "singer": 9399,
      "spoiled": 9400,
      "mink": 9401,
      "contrad": 9402,
      "observing": 9403,
      "caressed": 9404,
      "ski": 9405,
      "skil": 9406,
      "Beard": 9407,
      "arriving": 9408,
      "THIR": 9409,
      "biggest": 9410,
      ":--\"": 9411,
      "brains": 9412,
      "praying": 9413,
      "Marquis": 9414,
      "evidence": 9415,
      "meets": 9416,
      "refrain": 9417,
      "corp": 9418,
      "Rogue": 9419,
[...]
